{
  "vocab": [
    "\u0000",
    "\u0001",
    "\u0002",
    "\u0003",
    "\u0004",
    "\u0005",
    "\u0006",
    "\u0007",
    "\b",
    "\t",
    "\n",
    "\u000b",
    "\f",
    "\r",
    "\u000e",
    "\u000f",
    "\u0010",
    "\u0011",
    "\u0012",
    "\u0013",
    "\u0014",
    "\u0015",
    "\u0016",
    "\u0017",
    "\u0018",
    "\u0019",
    "\u001a",
    "\u001b",
    "\u001c",
    "\u001d",
    "\u001e",
    "\u001f",
    " ",
    "!",
    "\"",
    "#",
    "$",
    "%",
    "&",
    "'",
    "(",
    ")",
    "*",
    "+",
    ",",
    "-",
    ".",
    "/",
    "0",
    "1",
    "2",
    "3",
    "4",
    "5",
    "6",
    "7",
    "8",
    "9",
    ":",
    ";",
    "<",
    "=",
    ">",
    "?",
    "@",
    "A",
    "B",
    "C",
    "D",
    "E",
    "F",
    "G",
    "H",
    "I",
    "J",
    "K",
    "L",
    "M",
    "N",
    "O",
    "P",
    "Q",
    "R",
    "S",
    "T",
    "U",
    "V",
    "W",
    "X",
    "Y",
    "Z",
    "[",
    "\\",
    "]",
    "^",
    "_",
    "`",
    "a",
    "b",
    "c",
    "d",
    "e",
    "f",
    "g",
    "h",
    "i",
    "j",
    "k",
    "l",
    "m",
    "n",
    "o",
    "p",
    "q",
    "r",
    "s",
    "t",
    "u",
    "v",
    "w",
    "x",
    "y",
    "z",
    "{",
    "|",
    "}",
    "~",
    "",
    "",
    "",
    "",
    "",
    "",
    "",
    "",
    "",
    "",
    "",
    "",
    "",
    "",
    "",
    "",
    "",
    "",
    "",
    "",
    "",
    "",
    "",
    "",
    "",
    "",
    "",
    "",
    "",
    "",
    "",
    "",
    "",
    " ",
    "¡",
    "¢",
    "£",
    "¤",
    "¥",
    "¦",
    "§",
    "¨",
    "©",
    "ª",
    "«",
    "¬",
    "­",
    "®",
    "¯",
    "°",
    "±",
    "²",
    "³",
    "´",
    "µ",
    "¶",
    "·",
    "¸",
    "¹",
    "º",
    "»",
    "¼",
    "½",
    "¾",
    "¿",
    "À",
    "Á",
    "Â",
    "Ã",
    "Ä",
    "Å",
    "Æ",
    "Ç",
    "È",
    "É",
    "Ê",
    "Ë",
    "Ì",
    "Í",
    "Î",
    "Ï",
    "Ð",
    "Ñ",
    "Ò",
    "Ó",
    "Ô",
    "Õ",
    "Ö",
    "×",
    "Ø",
    "Ù",
    "Ú",
    "Û",
    "Ü",
    "Ý",
    "Þ",
    "ß",
    "à",
    "á",
    "â",
    "ã",
    "ä",
    "å",
    "æ",
    "ç",
    "è",
    "é",
    "ê",
    "ë",
    "ì",
    "í",
    "î",
    "ï",
    "ð",
    "ñ",
    "ò",
    "ó",
    "ô",
    "õ",
    "ö",
    "÷",
    "ø",
    "ù",
    "ú",
    "û",
    "ü",
    "ý",
    "þ",
    "ÿ",
    " t",
    "he",
    " a",
    "in",
    " the",
    "re",
    "on",
    "is",
    "at",
    " w",
    " s",
    "er",
    "en",
    " o",
    "nd",
    "it",
    " c",
    " b",
    "es",
    " to",
    " f",
    "or",
    " p",
    "an",
    " of",
    " in",
    "ing",
    " and",
    "al",
    " h",
    "ar",
    "ed",
    "ion",
    "ou",
    " th",
    " m",
    " d",
    "ro",
    "ic",
    "le",
    " ,",
    "ent",
    " re",
    "om",
    "as",
    " .",
    " n",
    " is",
    "il",
    " be",
    "ve",
    " that",
    "st",
    "ly",
    " e",
    "ct",
    " l",
    " g",
    "im",
    "ot",
    "ut",
    " on",
    " he",
    " for",
    "id",
    "ur",
    " wh",
    "se",
    "ation",
    "et",
    " C",
    "ol",
    "am",
    "ce",
    "pe",
    "ow",
    " u",
    "ith",
    "ri",
    "ver",
    "ad",
    " with",
    "ir",
    " M",
    " we",
    " as",
    " it",
    " st",
    " pro",
    " con",
    " E",
    "ay",
    " al",
    "The",
    "ment",
    "gh",
    " de",
    " S",
    "ill",
    "ul",
    "ort",
    "ch",
    "ld",
    "ter",
    "ra",
    " ha",
    " are",
    "res",
    " P",
    " an",
    "her",
    "ak",
    " I",
    " '",
    " his",
    " this",
    " by",
    " not",
    "ate",
    "omm",
    "if",
    " su",
    " y",
    "pp",
    " at",
    " ne",
    " have",
    "em",
    "ould",
    "os",
    "op",
    "el",
    "ers",
    "ess",
    "end",
    "uro",
    "ich",
    " sh",
    " A",
    "ant",
    "ge",
    "ain",
    "li",
    "ity",
    "ore",
    "ac",
    " ex",
    "us",
    "ive",
    " se",
    "oun",
    "urope",
    "ble",
    " Europe",
    " her",
    " which",
    " has",
    " v",
    "ust",
    "un",
    "ght",
    "art",
    " le",
    "est",
    "rom",
    "qu",
    " B",
    "oc",
    "sion",
    "ies",
    " k",
    "and",
    " will",
    "od",
    "iv",
    " com",
    " but",
    " from",
    "um",
    "ist",
    " Comm",
    " int",
    "port",
    " who",
    " European",
    " im",
    " ag",
    "ial",
    " R",
    "ure",
    "ard",
    " him",
    " do",
    " r",
    "all",
    " whe",
    " all",
    "ie",
    "our",
    " or",
    "ect",
    "out",
    " G",
    " go",
    " they",
    " T",
    " en",
    " D",
    "ission",
    " res",
    "ther",
    " ch",
    "ud",
    " wor",
    "ome",
    "ber",
    "ff",
    "ren",
    " was",
    "rou",
    " me",
    "ig",
    "ally",
    " j",
    " their",
    " -",
    " ab",
    "ions",
    " J",
    "pt",
    " L",
    "so",
    " can",
    "ke",
    "ous",
    " out",
    " Commission",
    "ident",
    "ind",
    "ack",
    "th",
    " H",
    "ry",
    "ake",
    " U",
    "'s",
    "ab",
    " un",
    " pl",
    " also",
    "ount",
    " pol",
    " there",
    " up",
    " St",
    " you",
    " would",
    "very",
    " dis",
    " ad",
    " she",
    " F",
    "ates",
    " part",
    "ire",
    " cont",
    " ac",
    "pl",
    "au",
    "ue",
    "ans",
    " li",
    "ag",
    "ast",
    "ong",
    "ree",
    " been",
    "ide",
    "ations",
    "Th",
    " so",
    " man",
    "one",
    " bec",
    " tr",
    "ice",
    " N",
    " them",
    " comp",
    "ance",
    " should",
    " Mr",
    "ime",
    "ost",
    "reat",
    " fa",
    "ult",
    " one",
    "ks",
    "ary",
    " am",
    "red",
    "vel",
    " 1",
    " Pres",
    "ap",
    " Un",
    " reg",
    "ear",
    "ament",
    " K",
    " our",
    "con",
    " into",
    " must",
    "We",
    "age",
    " other",
    "cess",
    "able",
    "ish",
    " about",
    "ru",
    "ll",
    "In",
    "iz",
    "arli",
    "ip",
    " qu",
    "pport",
    " more",
    "ame",
    "ia",
    " us",
    "ose",
    "orm",
    "ell",
    " inc",
    "ight",
    "fter",
    "ical",
    "ments",
    " President",
    "du",
    " like",
    " count",
    " work",
    "itt",
    " comm",
    "ries",
    "00",
    "ile",
    "It",
    " ar",
    "fore",
    " cl",
    " W",
    " ri",
    " act",
    "now",
    " when",
    " ev",
    "ated",
    "arliament",
    "ember",
    "ine",
    " its",
    " pe",
    "av",
    "ress",
    "per",
    " app",
    " pre",
    " lo",
    " report",
    "oin",
    " 2",
    "ens",
    " att",
    "ence",
    "pos",
    " need",
    "ee",
    "ious",
    " off",
    " dec",
    "og",
    "wn",
    " new",
    " Union",
    "ition",
    " time",
    "anc",
    "ause",
    " mar",
    "si",
    "nder",
    " what",
    "sel",
    "ang",
    "ade",
    " co",
    " only",
    "oy",
    " cons",
    " Parliament",
    " right",
    "ach",
    " know",
    "ever",
    "form",
    " imp",
    " year",
    " pos",
    " ro",
    " very",
    "urn",
    " bet",
    "ounc",
    "ob",
    "pect",
    " States",
    "He",
    "ign",
    "ok",
    " again",
    "ase",
    " get",
    "ise",
    " over",
    "ople",
    "are",
    " ra",
    "ub",
    " conc",
    " no",
    " sa",
    " than",
    " rec",
    " tak",
    " tw",
    " fin",
    "rent",
    " some",
    " Member",
    "get",
    " under",
    " if",
    "This",
    "fe",
    " my",
    "ord",
    " import",
    "ject",
    "oint",
    "ouncil",
    "tern",
    " find",
    "enc",
    "ational",
    " where",
    "ace",
    " these",
    " EU",
    "ves",
    "ives",
    " people",
    " Ch",
    " Council",
    " then",
    " te",
    "lic",
    " because",
    "ays",
    " `",
    "owever",
    "gr",
    "hen",
    "irst",
    " inv",
    " had",
    "ite",
    "ink",
    " cr",
    "ution",
    " em",
    " just",
    " propos",
    " spe",
    " now",
    "ings",
    " any",
    "ction",
    " sc",
    "ities",
    "we",
    " ind",
    " ''",
    " sp",
    "erm",
    "ild",
    " two",
    "ife",
    " i",
    " ser",
    "ass",
    " polic",
    "ather",
    " ``",
    " after",
    "Â ",
    "velop",
    "ian",
    " take",
    " pr",
    " being",
    " disc",
    "ater",
    "other",
    " eff",
    " ob",
    "ne",
    " V",
    " tra",
    "ep",
    "ory",
    "ving",
    " back",
    "als",
    " make",
    "ouse",
    " acc",
    " support",
    " countries",
    "â",
    " fe",
    "own",
    "ility",
    "xt",
    "der",
    "ily",
    "und",
    " see",
    " inst",
    "lie",
    "ures",
    " want",
    "ved",
    "act",
    "conom",
    "ick",
    "ating",
    " first",
    "low",
    " end",
    "ern",
    "ular",
    " develop",
    " O",
    " were",
    " rem",
    " rel",
    " per",
    "riend",
    "over",
    " dem",
    " leg",
    " ass",
    "ood",
    "roup",
    " important",
    "ors",
    " kill",
    "ween",
    "ced",
    " partic",
    " way",
    "ath",
    " (",
    "ough",
    "ict",
    " between",
    "uc",
    "tain",
    "ful",
    "oth",
    "gin",
    "ific",
    "self",
    " sub",
    "ues",
    "rough",
    "lud",
    "pon",
    " belie",
    "old",
    "ention",
    "aw",
    "resent",
    "Mr",
    " does",
    "lear",
    "As",
    "amp",
    " iss",
    " trans",
    " real",
    " agree",
    "ward",
    "ket",
    "ative",
    "igh",
    " point",
    " econom",
    " soc",
    " such",
    " dif",
    " tell",
    "te",
    " through",
    " say",
    " policy",
    "irect",
    "lp",
    " prov",
    " call",
    " well",
    "cept",
    " ret",
    "hes",
    " str",
    "uring",
    " own",
    " fact",
    "rest",
    " car",
    " help",
    " ent",
    "ms",
    " think",
    " op",
    " years",
    " aw",
    " polit",
    "ound",
    "row",
    "unity",
    "'t",
    " those",
    " des",
    " even",
    "ces",
    " inte",
    " every",
    "gy",
    " conf",
    "sible",
    " meet",
    " proble",
    "uch",
    "ov",
    "hed",
    "iew",
    " gu",
    " sy",
    " ref",
    " before",
    "uman",
    " set",
    " produ",
    " made",
    " good",
    " appro",
    " against",
    " concern",
    "ual",
    "mer",
    " particular",
    " fam",
    " respon",
    "ail",
    "air",
    " quest",
    "ning",
    "ft",
    " many",
    "ublic",
    " wom",
    "its",
    "ph",
    " vot",
    "hing",
    " great",
    "day",
    " prot",
    " while",
    " bas",
    " friend",
    "They",
    "ited",
    "ove",
    " clear",
    " 19",
    "ady",
    "ange",
    "ting",
    "aj",
    " long",
    "round",
    "lect",
    " includ",
    "ually",
    " down",
    " sec",
    "ts",
    "ision",
    " market",
    " bl",
    "However",
    "ency",
    "ural",
    "hip",
    "ices",
    " inform",
    " same",
    " col",
    "cial",
    "ittee",
    " both",
    "arm",
    " es",
    " believe",
    " how",
    " fil",
    "ince",
    " add",
    "ied",
    " could",
    " direct",
    " human",
    " mon",
    " rights",
    " sit",
    "ah",
    " still",
    "bers",
    "Wh",
    "ty",
    " deb",
    "ons",
    "When",
    "king",
    " mak",
    " most",
    "stem",
    "ollow",
    " political",
    "me",
    " ap",
    " contin",
    " 200",
    " life",
    "led",
    " ca",
    " child",
    " too",
    " requ",
    " rep",
    " group",
    "ene",
    " therefore",
    " much",
    " ext",
    "ric",
    "gram",
    "uth",
    "There",
    "ract",
    " order",
    "uation",
    " sm",
    "ised",
    " lead",
    "ted",
    "rib",
    " fund",
    " economic",
    " use",
    "rit",
    "les",
    "She",
    " br",
    " return",
    " put",
    " system",
    " beh",
    "ork",
    " intern",
    " start",
    " cour",
    "ener",
    " regard",
    "arge",
    "lement",
    "After",
    " inter",
    "ides",
    "ec",
    " film",
    " follow",
    " begin",
    " pers",
    " social",
    "ents",
    "oung",
    "ism",
    " exp",
    "ars",
    " protect",
    "atter",
    " father",
    "ploy",
    " world",
    " said",
    "ope",
    " show",
    "gan",
    "ertain",
    " last",
    " hand",
    " country",
    "iven",
    " financ",
    "ank",
    " prom",
    " ens",
    "embers",
    " home",
    "land",
    " here",
    " ins",
    " public",
    " sur",
    "gg",
    " incre",
    "arn",
    "ave",
    " bro",
    " cur",
    " effect",
    " program",
    " pri",
    " interest",
    " bo",
    " result",
    "ately",
    "itiz",
    " young",
    "oh",
    " fr",
    "eration",
    " high",
    "irl",
    "ax",
    " def",
    " family",
    " meas",
    "ety",
    " proposal",
    "oney",
    " loc",
    " fut",
    "cond",
    " next",
    "udget",
    " Y",
    " situation",
    " day",
    " happ",
    " your",
    "nment",
    " view",
    " question",
    "ister",
    " may",
    " plan",
    "alth",
    "omet",
    " tells",
    " future",
    " gover",
    " num",
    " citiz",
    " place",
    " An",
    "olution",
    "That",
    " expl",
    " dra",
    "empt",
    " house",
    "But",
    " Commissioner",
    "inc",
    "iron",
    "ute",
    "ss",
    "RB",
    " adop",
    " prev",
    " In",
    " turn",
    "rat",
    " bu",
    " amend",
    " det",
    " taken",
    "ient",
    "ruct",
    " present",
    "ner",
    " law",
    " development",
    " serv",
    " ful",
    "On",
    " sign",
    " issue",
    "ib",
    "men",
    "not",
    " run",
    "ret",
    " play",
    "olog",
    "vers",
    " national",
    " rest",
    " love",
    "man",
    " money",
    "ready",
    " possible",
    " Committee",
    " come",
    " look",
    " level",
    " able",
    " compet",
    " however",
    "LRB",
    " certain",
    " already",
    " suc",
    "cy",
    " process",
    "ool",
    " another",
    " fall",
    " diffe",
    " case",
    "ines",
    "ulation",
    " citizens",
    " three",
    "viron",
    "ven",
    " Mar",
    " sim",
    " uh",
    "ked",
    "vironment",
    " tal",
    " fl",
    " matter",
    " without",
    "â",
    "err",
    " invol",
    "chie",
    " state",
    " financial",
    " within",
    " going",
    " give",
    " The",
    " Con",
    " stand",
    " goes",
    " pow",
    "alf",
    " takes",
    " cannot",
    " discus",
    " away",
    " girl",
    " try",
    "sib",
    " fight",
    " bus",
    " consid",
    " somet",
    " min",
    "At",
    " allow",
    " respect",
    " main",
    "ean",
    " â",
    " today",
    " debate",
    " cre",
    " reas",
    " did",
    "iss",
    "urity",
    " budget",
    "iving",
    " measures",
    " course",
    " est",
    " old",
    "ists",
    "ority",
    "urther",
    " coop",
    "reed",
    " information",
    " accept",
    " leav",
    " achie",
    " mother",
    " during",
    " job",
    " hope",
    " deal",
    " area",
    " invest",
    " finds",
    " Mrs",
    " Ar",
    "eur",
    "ody",
    "ital",
    " since",
    "ased",
    "ug",
    " neg",
    "less",
    " aff",
    " arri",
    " term",
    " gener",
    "utions",
    " vis",
    " attempt",
    " implement",
    " why",
    "ctor",
    "ried",
    "ew",
    "CB",
    " each",
    " const",
    "isl",
    "iness",
    "fic",
    " agreement",
    " number",
    " ph",
    " far",
    " esc",
    "isation",
    "chn",
    " head",
    "rol",
    "ains",
    " democ",
    " ;",
    "work",
    " adv",
    " women",
    " become",
    "imin",
    "pr",
    " himself",
    "ness",
    " night",
    " environment",
    " cond",
    "any",
    " common",
    "oot",
    " open",
    "ling",
    " inf",
    " becom",
    "ond",
    "arch",
    " init",
    " auth",
    " small",
    "itions",
    " relations",
    "ird",
    "ross",
    " toget",
    " together",
    " impro",
    " maj",
    " legisl",
    " current",
    " Fr",
    " cor",
    "ently",
    " employ",
    " police",
    " 3",
    "ash",
    " organ",
    " death",
    " gl",
    " spec",
    " really",
    " instit",
    "wards",
    "augh",
    " ensure",
    " av",
    " having",
    "ages",
    "pporteur",
    " object",
    " given",
    " few",
    " pur",
    " De",
    " Sh",
    " comes",
    " problem",
    " princ",
    "ys",
    " problems",
    " ener",
    " means",
    " let",
    " comple",
    " appe",
    " necess",
    " international",
    " cooperation",
    " gr",
    "ality",
    " action",
    "illion",
    "ark",
    " stud",
    " imm",
    "arent",
    "ises",
    "chool",
    "io",
    "eep",
    " reve",
    "ison",
    "cc",
    "ample",
    " attack",
    "oura",
    "orities",
    "ock",
    "rence",
    "imes",
    "ential",
    " children",
    " Re",
    "by",
    " form",
    " Community",
    " second",
    " men",
    " different",
    " something",
    "ron",
    " dist",
    "If",
    "ered",
    " rapporteur",
    "ck",
    " feel",
    "ann",
    " later",
    "ided",
    " energy",
    " conv",
    "ically",
    "itive",
    " example",
    " redu",
    " dri",
    "ules",
    " exper",
    "come",
    "uses",
    " pay",
    " Al",
    "abl",
    " seem",
    " success",
    "ared",
    " wife",
    " mod",
    " med",
    "stand",
    " wel",
    "Â Â ",
    " pres",
    " person",
    "ape",
    " including",
    "ability",
    " House",
    " opport",
    "wh",
    " Th",
    " fore",
    " fav",
    " United",
    " security",
    "entle",
    " pass",
    " working",
    "rodu",
    " bre",
    " grow",
    " gets",
    " business",
    "meric",
    " care",
    " friends",
    "ional",
    " school",
    " represent",
    " further",
    " legal",
    " gentle",
    " techn",
    "ined",
    " consider",
    "oti",
    " access",
    "ged",
    "thing",
    " used",
    " 20",
    "ges",
    "ik",
    " val",
    "Â Â  ",
    " vote",
    "att",
    " health",
    "ficult",
    " Am",
    "ising",
    " difficult",
    " once",
    " better",
    "reaty",
    "ards",
    "adies",
    " cent",
    "aughter",
    "ants",
    " enc",
    " equ",
    " position",
    " sol",
    "ittle",
    " rev",
    " oper",
    " issues",
    " â",
    "ina",
    " indust",
    "ix",
    " require",
    " particularly",
    " around",
    " tries",
    " whether",
    "tic",
    " effort",
    " son",
    " protection",
    " colle",
    "selves",
    "atch",
    "til",
    "ple",
    "ases",
    " cost",
    " necessary",
    " power",
    " gentlemen",
    " makes",
    "ale",
    "ways",
    " elect",
    " negoti",
    " things",
    " account",
    " soon",
    " 199",
    "ead",
    " che",
    " change",
    " word",
    " Americ",
    " met",
    " story",
    "up",
    " boy",
    " establ",
    "gu",
    " found",
    " large",
    " never",
    " adm",
    " done",
    "na",
    "gress",
    " pract",
    " dep",
    "light",
    " control",
    "lus",
    " strate",
    " consum",
    " role",
    " prep",
    " local",
    " needs",
    " leave",
    " name",
    " ide",
    "ration",
    " mur",
    " product",
    " sing",
    " war",
    "ends",
    "ield",
    " keep",
    " free",
    " :",
    " directive",
    "sibility",
    " town",
    "az",
    " areas",
    " rece",
    "adam",
    " decision",
    " serious",
    " speak",
    "amed",
    "ims",
    " whole",
    " services",
    " making",
    "side",
    " continue",
    "ey",
    "ances",
    " fail",
    "ten",
    " woman",
    " crit",
    " vi",
    "For",
    "den",
    " cap",
    "ster",
    " train",
    " becomes",
    " until",
    " Pro",
    " bring",
    " var",
    " realiz",
    " move",
    " best",
    " fac",
    "An",
    "lig",
    " daughter",
    "With",
    " specific",
    " reason",
    "though",
    " taking",
    " little",
    " step",
    " proced",
    " gra",
    "ources",
    " discover",
    " promot",
    "ished",
    " supp",
    " aid",
    " towards",
    " killed",
    "ified",
    " begins",
    " less",
    "idency",
    " char",
    " dest",
    "aps",
    " sector",
    " mean",
    " project",
    " offic",
    "ton",
    " opin",
    "aring",
    " learn",
    " Group",
    "ending",
    " ladies",
    " Treaty",
    "tal",
    "ins",
    "isions",
    "ier",
    "airs",
    " Le",
    " ask",
    " chang",
    " always",
    " along",
    " contrib",
    " resolution",
    " bene",
    " tax",
    " terms",
    " subject",
    "uck",
    " break",
    "ilit",
    " rules",
    " event",
    " government",
    "com",
    "amework",
    " build",
    " 5",
    "ger",
    " initi",
    " progress",
    " thank",
    " ur",
    "ultural",
    " rese",
    " introdu",
    " nat",
    " brother",
    " basis",
    " creat",
    " behalf",
    "ohn",
    " wish",
    " demand",
    " dr",
    " amendments",
    "ably",
    " el",
    " trade",
    "erv",
    "ible",
    " viol",
    "leg",
    "eed",
    "ogn",
    "ics",
    " short",
    "rist",
    "ai",
    " reform",
    "eah",
    " effective",
    " suff",
    "ps",
    "pecial",
    " room",
    " happen",
    "ters",
    "ify",
    "ral",
    " left",
    "iety",
    "ination",
    " close",
    " understand",
    " proposals",
    "ience",
    "\\/",
    "orth",
    " sever",
    "What",
    " 4",
    " decides",
    " ed",
    " finally",
    "ering",
    " prof",
    "outh",
    "ressed",
    " po",
    " Members",
    " occ",
    "isis",
    "While",
    " par",
    "ek",
    " air",
    " leaves",
    " approach",
    " sw",
    "ference",
    " pop",
    " recogn",
    " dead",
    " read",
    " several",
    " programme",
    " crisis",
    " members",
    "error",
    " don",
    "One",
    " though",
    " favour",
    " activ",
    " discuss",
    " month",
    " adopted",
    "ont",
    "ured",
    " tri",
    "asing",
    "while",
    " kind",
    "sequ",
    "my",
    " concerned",
    " rather",
    " says",
    "iting",
    "the",
    " stop",
    " Z",
    "reedom",
    " exist",
    "pri",
    "la",
    " wants",
    " strong",
    "ense",
    " commun",
    " million",
    "used",
    "orn",
    " ann",
    "imate",
    " forward",
    " mention",
    " lab",
    " fle",
    " Sp",
    " provide",
    "So",
    " actually",
    " princip",
    "ha",
    " opp",
    " third",
    " legislation",
    "ences",
    " peace",
    "atives",
    " ris",
    "Al",
    " opinion",
    " framework",
    " final",
    "ley",
    " Is",
    " Rus",
    " transport",
    " full",
    " opportunity",
    "pecially",
    " State",
    "ulture",
    "fort",
    "ceed",
    "ishing",
    "fety",
    " wr",
    "sp",
    " ple",
    " food",
    " gives",
    "ex",
    " remain",
    "to",
    "ratic",
    "overnment",
    " near",
    "friend",
    " past",
    " achieve",
    " others",
    " di",
    " asks",
    "iding",
    " involved",
    " threat",
    "To",
    "oss",
    " relationship",
    " named",
    " improve",
    " especially",
    "arant",
    " commit",
    " rele",
    " four",
    " land",
    "pped",
    " manage",
    "enn",
    " Min",
    " institutions",
    " itself",
    "idence",
    " called",
    "000",
    "ream",
    " mor",
    " welcome",
    " various",
    " vill",
    "ension",
    "key",
    " Se",
    "iod",
    " assist",
    " join",
    " least",
    " general",
    "racy",
    " sum",
    "obal",
    "ners",
    " live",
    " freedom",
    " ess",
    " New",
    "use",
    " quite",
    " mot",
    "ought",
    " sent",
    "rie",
    "band",
    " treat",
    " following",
    " Tur",
    "ires",
    "pite",
    "here",
    " body",
    " attention",
    "amental",
    "els",
    " might",
    "ized",
    "ury",
    " mo",
    " enough",
    "mes",
    " Germ",
    " terror",
    "ither",
    "ium",
    "ivil",
    " Ind",
    " ident",
    " mom",
    " agric",
    " behind",
    "allen",
    " authorities",
    " guarant",
    " yet",
    " meets",
    " benef",
    " addition",
    " based",
    "ler",
    "stit",
    " comb",
    " returns",
    "sw",
    " resources",
    "itted",
    " force",
    " escape",
    " hold",
    "aid",
    " seen",
    " lim",
    " conditions",
    " research",
    " prevent",
    " major",
    " lives",
    " meeting",
    " due",
    "ane",
    "uge",
    " face",
    "irm",
    "ung",
    " among",
    " expect",
    " En",
    "ended",
    "ats",
    "ians",
    " John",
    " integr",
    "itor",
    " trying",
    " increase",
    " extre",
    " themselves",
    " Sc",
    "eanwhile",
    " party",
    "And",
    " proposed",
    " ori",
    "iation",
    "ule",
    " true",
    "Meanwhile",
    " abs",
    "raph",
    " shall",
    " quick",
    " water",
    " principle",
    " falls",
    "reng",
    " press",
    " complete",
    "usband",
    " Af",
    " clearly",
    " challen",
    " safety",
    " doing",
    " list",
    " sex",
    " employment",
    " writ",
    " proper",
    " efforts",
    "ples",
    " Pol",
    "ivid",
    " perform",
    "lies",
    " society",
    "most",
    " industry",
    " sees",
    "ches",
    " streng",
    " essential",
    "ata",
    "cing",
    "reen",
    " govern",
    "icient",
    " responsibility",
    "ired",
    " policies",
    " shoot",
    " global",
    " ste",
    "RCB",
    " words",
    " cla",
    " thing",
    "arity",
    " pat",
    "fully",
    " camp",
    " regul",
    " importance",
    " husband",
    "osed",
    " field",
    " aim",
    " period",
    "mb",
    " lot",
    " eng",
    " priv",
    " kid",
    " accident",
    " points",
    "sh",
    " vict",
    "ests",
    " shows",
    " upon",
    "These",
    " single",
    " everyone",
    " wa",
    " voted",
    " bal",
    "ames",
    " sugg",
    " travel",
    " strategy",
    " Ag",
    " Presidency",
    "way",
    " greater",
    " parent",
    " affect",
    " city",
    " ago",
    " sure",
    "aged",
    " text",
    " dou",
    " living",
    " ends",
    "iet",
    "edi",
    " entire",
    " appropri",
    " gun",
    " environmental",
    " educ",
    " using",
    " big",
    "osp",
    "ert",
    " individ",
    " road",
    " doc",
    " negotiations",
    "co",
    " products",
    " extreme",
    "rug",
    " farm",
    " often",
    " signific",
    " origin",
    "ived",
    " seems",
    " cho",
    "reet",
    " exc",
    " non",
    " sk",
    " instru",
    " hard",
    "lin",
    "rees",
    " reveal",
    " bar",
    " fun",
    " secret",
    "anger",
    "spect",
    "Fin",
    " prison",
    " eas",
    "stain",
    "oe",
    " fundamental",
    " team",
    "vention",
    " Bar",
    " sav",
    "aster",
    " ce",
    " outside",
    " regulation",
    " wal",
    " nothing",
    "bon",
    "ption",
    "irc",
    "iously",
    " discussion",
    " stat",
    " positive",
    " colleag",
    " months",
    " civil",
    " mov",
    " special",
    " hist",
    " workers",
    "omb",
    " saying",
    " Car",
    " gang",
    " days",
    "ply",
    " calls",
    " interests",
    " 6",
    " investig",
    " struct",
    "aper",
    "ification",
    " economy",
    " across",
    " docu",
    " Lis",
    " cut",
    "rate",
    " adopt",
    " encoura",
    " arrives",
    " dev",
    " ship",
    " compan",
    " capt",
    " former",
    " got",
    " attempts",
    " Bl",
    " increasing",
    " enl",
    "sia",
    "then",
    "ator",
    " sister",
    "por",
    " deli",
    "ony",
    "mit",
    "aff",
    " answ",
    "ying",
    " sl",
    " competition",
    "ees",
    " moment",
    " cou",
    " obs",
    " avail",
    " hon",
    "yl",
    " states",
    " internal",
    " Br",
    "Finally",
    "ogue",
    " mind",
    " ve",
    "artment",
    " Brit",
    "ighb",
    " parents",
    "You",
    " anim",
    "val",
    "fortun",
    "ott",
    " whose",
    " milit",
    " Har",
    " trad",
    " instead",
    " destro",
    " inn",
    " draw",
    " regions",
    " eventually",
    " everything",
    " turns",
    " low",
    " technolog",
    " quickly",
    " amb",
    " whom",
    " drug",
    " simply",
    " accord",
    " partners",
    "oo",
    "Un",
    "idd",
    "erry",
    " ty",
    " foc",
    " idea",
    "ior",
    "ext",
    " aspect",
    "aren",
    " results",
    " purs",
    " applic",
    "His",
    " particip",
    "inist",
    " starts",
    " democracy",
    " ban",
    " tar",
    " runs",
    " fell",
    " circ",
    " American",
    " implementation",
    " Christ",
    " lack",
    " democratic",
    "LCB",
    " ter",
    " concerns",
    " stay",
    " create",
    " region",
    " line",
    "ize",
    "ication",
    " side",
    "aking",
    " funds",
    " ground",
    "ilities",
    " heart",
    "eral",
    "ging",
    "utional",
    "pose",
    " questions",
    " post",
    "'re",
    "rown",
    " plans",
    " immedi",
    "uff",
    "ush",
    " draft",
    " bord",
    " recent",
    " quality",
    " times",
    "Ch",
    "for",
    " demon",
    " Ge",
    " safe",
    " fully",
    " growth",
    "ticle",
    "omp",
    " committee",
    " although",
    " fis",
    " neighb",
    " ele",
    "haps",
    "de",
    " movie",
    "ulate",
    " discovers",
    " strengthen",
    "utes",
    " responsible",
    " longer",
    " light",
    " aware",
    " super",
    " cred",
    " Government",
    "itting",
    "ull",
    "antly",
    " Q",
    " getting",
    "ivers",
    " transp",
    " gen",
    " enter",
    " harm",
    "ued",
    "arth",
    " leaving",
    "epend",
    " reveals",
    " extremely",
    " companies",
    " reach",
    " standards",
    " changes",
    "aur",
    "atic",
    " ever",
    " realizes",
    "atory",
    " impact",
    " express",
    " No",
    " jud",
    " procedure",
    "unt",
    " emph",
    "ana",
    " key",
    " data",
    " US",
    "nect",
    " charact",
    " murder",
    " top",
    " risk",
    " resol",
    "lusion",
    " reject",
    "ike",
    " sustain",
    "grat",
    " fire",
    " week",
    "par",
    "apt",
    " five",
    " confron",
    " Minister",
    "ression",
    "fer",
    " arrest",
    " recomm",
    "ole",
    " production",
    "oid",
    "app",
    " Pr",
    "ney",
    "cise",
    "using",
    " congrat",
    " majority",
    " decide",
    " Afric",
    " certainly",
    " share",
    " available",
    "sc",
    "ara",
    " Intern",
    " groups",
    "son",
    " decisions",
    "une",
    " determ",
    "rought",
    " dial",
    "elf",
    "ourt",
    "Madam",
    " hor",
    " Aff",
    " military",
    " request",
    "lying",
    " needed",
    " 7",
    " pot",
    " EUR",
    "cell",
    " surv",
    " talk",
    " management",
    " solution",
    " class",
    " cat",
    " ord",
    " crimin",
    " subst",
    " Affairs",
    "orld",
    "be",
    " Rom",
    " crime",
    " cru",
    " parliament",
    " win",
    " Sw",
    " decl",
    " morning",
    " programmes",
    " education",
    " visit",
    " Ir",
    "ma",
    " exam",
    " 10",
    "oon",
    " almost",
    " objectives",
    "arian",
    " assess",
    " constit",
    " company",
    "fortunately",
    "rict",
    "ya",
    " indeed",
    "ude",
    "ask",
    " scene",
    "ached",
    "During",
    "pping",
    " Dr",
    " hot",
    " hosp",
    " consequ",
    "arly",
    " amount",
    " emphas",
    " bad",
    "rench",
    " Ad",
    " jobs",
    "go",
    " married",
    " Tr",
    "bs",
    " target",
    " rule",
    "All",
    " village",
    " address",
    " include",
    " sold",
    "riage",
    " tele",
    " plac",
    " agreements",
    "aul",
    " held",
    " conflic",
    " broad",
    "attle",
    " cases",
    " Court",
    " net",
    " appears",
    " Ital",
    "aches",
    " shot",
    " building",
    " establish",
    " miss",
    " Lisbon",
    " looking",
    " profess",
    " herself",
    " asked",
    " costs",
    " context",
    "hod",
    "bert",
    " activities",
    " doub",
    "istic",
    " mess",
    " alone",
    " Tom",
    " pack",
    " clos",
    " He",
    " ill",
    " danger",
    "aut",
    " Fund",
    " 8",
    " events",
    " Mon",
    "lo",
    " Jack",
    " door",
    "ny",
    " Soc",
    " lost",
    " bur",
    " half",
    " convin",
    " writing",
    " currently",
    " coord",
    " objective",
    " comprom",
    "ators",
    " kills",
    " forces",
    " demonst",
    " cross",
    " Pet",
    " dialogue",
    " reports",
    " systems",
    " thought",
    " kn",
    " developing",
    " brought",
    " told",
    "oks",
    " coming",
    " refuses",
    " carry",
    " 9",
    "mber",
    "ffice",
    "enda",
    " fig",
    " euro",
    " self",
    " administ",
    " service",
    " above",
    "20",
    " black",
    "lt",
    " art",
    "ledge",
    "ounter",
    " amendment",
    "ech",
    " Wh",
    " infl",
    " regional",
    " appropriate",
    "hood",
    " stri",
    "uclear",
    "First",
    " mentioned",
    " ey",
    "lied",
    "ibility",
    " initiative",
    " resc",
    " agricultural",
    " And",
    " individual",
    " else",
    " reasons",
    " hospital",
    "200",
    " took",
    " known",
    " emer",
    "ours",
    " maintain",
    " French",
    " despite",
    " mult",
    " Turkey",
    " div",
    " works",
    "iddle",
    " forced",
    "oll",
    "akes",
    " cohe",
    " compl",
    "new",
    " marry",
    " British",
    "yn",
    "of",
    " repe",
    " perm",
    " independ",
    " immig",
    " Madam",
    "iveness",
    " mis",
    "Se",
    "rimin",
    " concerning",
    " enlarge",
    " giving",
    " couple",
    " fair",
    " unc",
    "abled",
    " fear",
    " mist",
    "rew",
    " actions",
    " suggest",
    " test",
    "ishes",
    " climate",
    " matters",
    " 201",
    "ights",
    " Direct",
    " mus",
    "inks",
    " aud",
    "eng",
    "que",
    "ding",
    " detail",
    " King",
    " rad",
    " talking",
    "ruction",
    " either",
    " training",
    " cover",
    " fellow",
    " Pal",
    "uk",
    " escap",
    "ively",
    ").",
    " Sam",
    " earli",
    " connect",
    " watch",
    " hands",
    " wind",
    " Ro",
    " shown",
    "beral",
    " provided",
    "ump",
    " conclud",
    " method",
    "..",
    " Man",
    "ote",
    "cent",
    " We",
    " solid",
    " foreign",
    " Geor",
    " stru",
    " Russia",
    "ened",
    " front",
    "Let",
    " stage",
    "yeah",
    " guarantee",
    " emb",
    " led",
    "reg",
    " wit",
    " agrees",
    "rief",
    " marriage",
    " anything",
    " joint",
    " Amend",
    "ned",
    " save",
    " private",
    "Europe",
    " significant",
    " port",
    " parties",
    " design",
    " nuclear",
    " dam",
    "iples",
    "vent",
    " El",
    "atis",
    "acy",
    "aun",
    " monitor",
    " excell",
    " enlargement",
    "sid",
    " killing",
    "know",
    " 15",
    " review",
    " Em",
    "eth",
    " community",
    " record",
    "let",
    " exch",
    " pain",
    " spir",
    " Ed",
    " perhaps",
    "ots",
    "gic",
    " official",
    "ev",
    " sens",
    " funding",
    "hel",
    " World",
    "ored",
    "ories",
    "ilt",
    " arr",
    " yeah",
    " won",
    "ctions",
    " thus",
    " six",
    "ti",
    "head",
    " Ang",
    "era",
    "eg",
    " offers",
    " il",
    " impos",
    " island",
    "ani",
    " earlier",
    " street",
    " scient",
    "Later",
    " anal",
    " principles",
    " foot",
    "atisf",
    " follows",
    " Part",
    " office",
    " York",
    " answer",
    " Cl",
    "rend",
    " search",
    " desc",
    " consumers",
    " refer",
    " commitment",
    " illeg",
    "anced",
    "amb",
    " remains",
    " offer",
    " population",
    " wrong",
    " rob",
    "uh",
    " Bal",
    "ization",
    " learns",
    "oor",
    " Bel",
    " surpr",
    "duct",
    " defin",
    " vol",
    " jour",
    " Rep",
    "),",
    " hop",
    "ij",
    "uly",
    " obv",
    " tem",
    "line",
    " oppos",
    " Social",
    " nature",
    " projects",
    " response",
    " dut",
    "encies",
    " governments",
    " sense",
    " decided",
    "set",
    " poor",
    "chan",
    "ring",
    " personal",
    "rect",
    " recommend",
    "emoc",
    " dog",
    " destroy",
    " Reg",
    "rupt",
    "joy",
    " except",
    "employ",
    " throughout",
    " mob",
    "ening",
    " grand",
    " Col",
    "eria",
    " practice",
    " apartment",
    " mission",
    "hern",
    "apan",
    " z",
    " separ",
    " inside",
    " ver",
    "ternal",
    " mag",
    " regards",
    "umb",
    " regarding",
    "angu",
    " recently",
    " dream",
    "ograph",
    " remind",
    " excellent",
    " potential",
    " promote",
    "'ve",
    "more",
    " immediately",
    " date",
    " previous",
    " document",
    "ris",
    " violence",
    " susp",
    " base",
    "uing",
    " compromise",
    " experience",
    "ained",
    "orrow",
    "ania",
    " heard",
    " blood",
    " agreed",
    " avoid",
    "resident",
    "unk",
    " Mc",
    " Char",
    " achieved",
    "rael",
    " assoc",
    " Article",
    " Eng",
    " May",
    " assistance",
    " benefit",
    "aby",
    " aut",
    "ites",
    "St",
    " manages",
    " cle",
    " mechan",
    "right",
    "sy",
    " book",
    "DE",
    " recon",
    " tour",
    " sal",
    " um",
    "ades",
    " arrive",
    " urg",
    " contr",
    "uel",
    " vo",
    " Or",
    " Ph",
    " successful",
    " initial",
    "ched",
    "My",
    " argu",
    " indic",
    " Cent",
    "vant",
    " priority",
    " leads",
    "ously",
    " Co",
    " German",
    " grant",
    " proceed",
    " happened",
    " early",
    "eneral",
    " late",
    " cust",
    " wanted",
    "term",
    " pen",
    "aught",
    "Now",
    " Japan",
    " powers",
    " chance",
    " unable",
    " brief",
    " appear",
    " China",
    "overty",
    " throw",
    " Dav",
    " rap",
    " cause",
    "President",
    " happy",
    "rain",
    "ese",
    " note",
    "olute",
    " Be",
    " contact",
    " Par",
    " Convention",
    " mass",
    " hig",
    " Gree",
    " host",
    " den",
    " continues",
    " Sec",
    " exec",
    " congratulate",
    " dro",
    "read",
    "rated",
    "Although",
    " fishing",
    "Sh",
    "bo",
    " completely",
    " aspects",
    "oph",
    " value",
    " War",
    " influ",
    "hold",
    " capital",
    " game",
    " required",
    "imum",
    " news",
    " item",
    " und",
    " technical",
    "rely",
    " character",
    " pret",
    " markets",
    "'m",
    " came",
    "Then",
    " enjoy",
    "ctors",
    " criminal",
    "arily",
    " values",
    " colleagues",
    " absolute",
    " knows",
    " 18",
    " demands",
    " huge",
    "equ",
    " legislative",
    "ici",
    " apply",
    " langu",
    " labour",
    "iers",
    " truth",
    "ael",
    "Be",
    " deep",
    " coll",
    " bed",
    " Mart",
    " trou",
    "leep",
    " restrict",
    " los",
    "unities",
    " believes",
    " sustainable",
    " solidarity",
    " dies",
    " Israel",
    " prob",
    "Second",
    "lex",
    " hit",
    "ills",
    " hear",
    "arency",
    "ones",
    " bank",
    " investment",
    "year",
    " existing",
    " consumer",
    " Pe",
    " ways",
    "itional",
    "ensive",
    " uses",
    " poverty",
    " Med",
    " weap",
    " communication",
    "iles",
    "TO",
    " wealth",
    " history",
    " France",
    "--",
    " consult",
    "Office",
    "Therefore",
    "ederal",
    " relation",
    " cand",
    "Our",
    " sell",
    " famil",
    "acher",
    " $",
    "ery",
    " ten",
    " reading",
    " collect",
    "heries",
    " murd",
    " beaut",
    " arm",
    " carried",
    " Jan",
    " inj",
    "imately",
    "where",
    " Euro",
    "uine",
    " organis",
    " traff",
    " Raj",
    "ops",
    " subsid",
    " requirements",
    " dom",
    " justice",
    " integration",
    " 12",
    "raw",
    " victims",
    " reality",
    "ares",
    " contribution",
    " contract",
    " witness",
    "irth",
    "ief",
    " consequences",
    " leading",
    " station",
    " respond",
    "vision",
    " tor",
    " assum",
    " strugg",
    " Fin",
    "appe",
    " transparency",
    "ilar",
    " repl",
    " fra",
    " sche",
    " Frank",
    " reven",
    "antic",
    "anish",
    " agenda",
    " cultural",
    " raised",
    " model",
    " UN",
    " terrorism",
    " elections",
    "iff",
    " basic",
    " procedures",
    " increased",
    " balance",
    " Rights",
    "tt",
    " series",
    " satisf",
    " pleased",
    "ession",
    " knowledge",
    " attacks",
    " illegal",
    " unemploy",
    " beginning",
    "ingly",
    " statement",
    " Democ",
    " board",
    "rand",
    " sound",
    " battle",
    " spirit",
    " claim",
    " age",
    "rial",
    " girls",
    " creation",
    " revealed",
    " Port",
    " Directive",
    " doubt",
    " regulations",
    " member",
    " challenges",
    "ift",
    " pressure",
    "rences",
    " Jim",
    " mut",
    "dden",
    " presented",
    " emission",
    "ocks",
    "etary",
    " message",
    " attract",
    " reflect",
    " innov",
    " criteria",
    "illy",
    " provisions",
    " leaders",
    " modern",
    " sett",
    " thanks",
    "uted",
    "ald",
    " 2000",
    " stress",
    " Pl",
    " link",
    " |",
    " reduce",
    " involve",
    " task",
    " focus",
    "conomic",
    " dire",
    " conflict",
    "sian",
    " crucial",
    " Aust",
    " exchange",
    " Paul",
    "roll",
    "af",
    " ult",
    " obtain",
    " sudden",
    " music",
    " rail",
    " equal",
    " Mor",
    " thinking",
    " staff",
    "urs",
    " precise",
    " farmers",
    " Mal",
    " received",
    " territ",
    " conduct",
    " pie",
    " application",
    " highlight",
    "ball",
    "room",
    " ourselves",
    " girlfriend",
    "well",
    "oke",
    "ama",
    " East",
    "icide",
    " aband",
    " sort",
    " mer",
    " prepared",
    "ological",
    "izes",
    " treatment",
    "vis",
    "olly",
    " yes",
    " weak",
    "liance",
    " court",
    "ager",
    " hom",
    " evidence",
    " Ab",
    " America",
    " sets",
    " cod",
    "ichael",
    "een",
    " probably",
    " opt",
    " stability",
    " oblig",
    " critic",
    " Will",
    "cl",
    " baby",
    " del",
    " Li",
    "ason",
    "Secondly",
    " went",
    "ature",
    " flex",
    " correct",
    " red",
    " liberal",
    " gas",
    " becoming",
    " telling",
    " mater",
    "mar",
    "idel",
    " 11",
    "vert",
    " letter",
    " total",
    " analys",
    "ini",
    " birth",
    " orders",
    " instruments",
    "ousand",
    " price",
    "erve",
    " wed",
    " Just",
    "rec",
    " circum",
    " included",
    " myster",
    "idered",
    " officer",
    " levels",
    " cast",
    "mp",
    " reached",
    " cohesion",
    " effects",
    " playing",
    " pun",
    "Des",
    " worth",
    " bomb",
    " died",
    " breaks",
    " considered",
    " allowed",
    " relating",
    " oil",
    " hotel",
    "ien",
    " study",
    " crew",
    " acqu",
    " direction",
    "itude",
    "iter",
    " exact",
    "ban",
    " harmon",
    " explains",
    " Republic",
    " firm",
    " South",
    " pub",
    " created",
    " ir",
    " committed",
    " \"",
    " voting",
    " Amendment",
    " rat",
    "theless",
    "icks",
    " tabled",
    " brings",
    " Mad",
    "long",
    " technology",
    " movement",
    " Ira",
    " din",
    " causing",
    " Angel",
    " remember",
    " encourage",
    " consist",
    "olid",
    "eks",
    " refuge",
    " natural",
    " looks",
    "wise",
    " succeed",
    "gar",
    "Her",
    " Africa",
    "sels",
    "vered",
    "ray",
    " suspect",
    " similar",
    " initiatives",
    "ugs",
    "itarian",
    " instrument",
    " relig",
    " opportunities",
    " gone",
    " apparent",
    "yle",
    " causes",
    "iful",
    " steps",
    " norm",
    " Don",
    " David",
    " genuine",
    " accession",
    "ourable",
    " band",
    " Party",
    " undert",
    " namely",
    " ment",
    " candid",
    " explain",
    " tom",
    " package",
    " seek",
    "Some",
    " established",
    "aign",
    " organisations",
    "rem",
    "leb",
    "\\*",
    " warn",
    " disappe",
    " regret",
    "urch",
    " leader",
    "itten",
    " heav",
    " 30",
    "dom",
    " dise",
    " priorities",
    " Iraq",
    "cer",
    " occas",
    "ports",
    " trust",
    " thousand",
    " monitoring",
    " Jul",
    " receive",
    " developed",
    " fre",
    "fect",
    " â",
    " provides",
    "More",
    " doctor",
    " Qu",
    " Gu",
    "ows",
    "ender",
    "like",
    " voice",
    " bod",
    "ilater",
    " forest",
    " discrimin",
    " floor",
    " custom",
    " original",
    " conclusion",
    " additional",
    " campaign",
    "view",
    " running",
    " weeks",
    " experi",
    " anti",
    "dy",
    "rative",
    " !",
    "cks",
    "sibilities",
    "hic",
    " altern",
    " someone",
    "anny",
    "alled",
    " send",
    " ign",
    "body",
    " She",
    "ken",
    "back",
    " nor",
    " abandon",
    " hy",
    "ita",
    " phot",
    " billion",
    " speech",
    "iated",
    " asking",
    " Palest",
    "gn",
    "eff",
    "sec",
    " seeing",
    " purpose",
    " convinced",
    " Sl",
    "just",
    "force",
    "Further",
    "uct",
    " suicide",
    " external",
    " describ",
    "ocked",
    " escapes",
    " vital",
    " circumst",
    " calling",
    " advant",
    " laun",
    "nie",
    " II",
    " pick",
    " sufficient",
    " prim",
    " setting",
    " budgetary",
    " It",
    " extent",
    " expressed",
    " bit",
    " wound",
    " drive",
    " disp",
    "ications",
    "bour",
    " slow",
    "reland",
    " creating",
    " sends",
    " renew",
    "iment",
    " waste",
    " Constit",
    " opening",
    " vehic",
    " shoots",
    " phone",
    " claims",
    "gest",
    " 25",
    " central",
    "uf",
    " waiting",
    " Mary",
    " mount",
    "acity",
    " supported",
    "ets",
    " rate",
    " rural",
    " ?",
    " ready",
    " rich",
    " possibility",
    " San",
    " eval",
    "oul",
    "ival",
    " wat",
    " medium",
    " challenge",
    " bodies",
    "eal",
    " opens",
    " goods",
    " benefits",
    "aration",
    " paid",
    " behav",
    " combat",
    " culture",
    "iciency",
    " wishes",
    " college",
    "action",
    "ino",
    " hum",
    "vere",
    " author",
    " motion",
    " absolutely",
    "isc",
    " partnership",
    "By",
    " duty",
    " sn",
    " forms",
    " plot",
    " implemented",
    " hours",
    " Cal",
    " animals",
    "irt",
    " drink",
    " type",
    " prices",
    " mem",
    "istan",
    "agraph",
    "Con",
    " Ma",
    " forget",
    " Germany",
    "icy",
    "rats",
    " sleep",
    " material",
    " confirm",
    "velopment",
    " Su",
    "rehen",
    " caused",
    "house",
    " arrested",
    " emissions",
    " drugs",
    " celeb",
    " June",
    " Ben",
    " pict",
    " bey",
    "raft",
    " reb",
    " sea",
    " beyond",
    " Swed",
    " tomorrow",
    " reduction",
    " media",
    " increasingly",
    " circumstances",
    " borders",
    " students",
    " partner",
    " Ireland",
    "overed",
    "'.",
    " wall",
    " confidence",
    " comments",
    " beautiful",
    "ylum",
    " counter",
    "ground",
    " God",
    " caught",
    " affair",
    " wedding",
    " uns",
    " loss",
    " immigration",
    " ang",
    "ica",
    "erran",
    "aced",
    " publ",
    " connection",
    "ena",
    " 13",
    "cember",
    " grad",
    " ensuring",
    "rif",
    " evening",
    " exer",
    " Lu",
    " 000",
    "Unfortunately",
    " competit",
    " ...",
    " saw",
    " table",
    "ze",
    " pull",
    "ology",
    " industrial",
    " army",
    " accepted",
    " rom",
    "itation",
    " efficient",
    " anyone",
    "ilateral",
    " As",
    "int",
    "che",
    " lif",
    " finding",
    " complex",
    " Alex",
    " enable",
    "inated",
    " Portug",
    " Conference",
    " intended",
    " sectors",
    " nar",
    " function",
    "han",
    " seriously",
    " intel",
    " tack",
    " discussed",
    "coming",
    "estern",
    " views",
    " directly",
    " dangerous",
    "iterran",
    "Despite",
    "iterranean",
    "ource",
    " presidency",
    " businesses",
    " gave",
    " Sch",
    " unf",
    " space",
    " bear",
    " Ex",
    "itch",
    "illed",
    " defe",
    " fisheries",
    " content",
    " border",
    " agriculture",
    "ming",
    " perfect",
    " status",
    " spend",
    " Bob",
    " enterpr",
    " Nations",
    " wid",
    " speed",
    " Michael",
    " 17",
    "enced",
    " concept",
    " fighting",
    " buy",
    " according",
    " Ser",
    "iversity",
    " incident",
    " affected",
    " assessment",
    " effectively",
    " Joe",
    " reforms",
    "nal",
    "icated",
    " mach",
    " cop",
    "urt",
    " cal",
    "Ã©",
    "iction",
    " wonder",
    " independent",
    " choice",
    " applied",
    " animal",
    "iling",
    " soldiers",
    " practical",
    " burn",
    " Central",
    " December",
    " performance",
    " planning",
    " sil",
    " representatives",
    "inary",
    "ky",
    "zz",
    " explo",
    " Budget",
    "ox",
    "aging",
    " highly",
    " General",
    "ari",
    " 14",
    " sexual",
    " rescue",
    " unemployment",
    " contain",
    "Of",
    " North",
    "wor",
    "izing",
    " condem",
    "ureau",
    "sych",
    " poll",
    " hun",
    "ondon",
    " teacher",
    " middle",
    " identity",
    " eyes",
    "EC",
    "idelines",
    "'ll",
    " supply",
    " qual",
    " century",
    "iam",
    " steal",
    " providing",
    "Once",
    " sometimes",
    " Sum",
    " asylum",
    "pective",
    " depend",
    "rian",
    "European",
    " meant",
    " George",
    "Since",
    " comment",
    " colleague",
    " Bank",
    " willing",
    " operation",
    " rout",
    " announc",
    "oking",
    " raise",
    " plays",
    " dealing",
    " fort",
    " White",
    " feels",
    " discussions",
    " commer",
    " san",
    " relevant",
    " histor",
    " Jerry",
    " substant",
    " lar",
    " ones",
    " This",
    " star",
    "ining",
    " sitting",
    "pper",
    "'d",
    " boys",
    "uary",
    " capacity",
    " thinks",
    " growing",
    " fem",
    " visits",
    " followed",
    " started",
    "arlie",
    " eld",
    " London",
    " Justice",
    " radio",
    " difficulties",
    "urance",
    " persu",
    " fulf",
    " EC",
    " kids",
    "bed",
    " plant",
    " missing",
    " higher",
    " extra",
    " adoption",
    " Jo",
    "dam",
    "cle",
    " simpl",
    " influence",
    " agencies",
    " suddenly",
    " Spanish",
    "ective",
    " stab",
    "gen",
    " unac",
    " squ",
    " minister",
    " played",
    " boss",
    " Bro",
    " ke",
    " Ste",
    "ancing",
    " bul",
    "EP",
    " owner",
    " Development",
    "undred",
    "kes",
    "Just",
    "rant",
    " annual",
    "itable",
    " tried",
    " penal",
    " happens",
    "How",
    " active",
    "rel",
    " Sar",
    " concent",
    " Che",
    " 16",
    " Ber",
    " song",
    " pregn",
    " belong",
    "Before",
    " ball",
    " approved",
    " coordination",
    "enny",
    " structural",
    " Russian",
    " psych",
    " onto",
    " student",
    " revenge",
    " realize",
    " arms",
    "0s",
    " supposed",
    " kiss",
    " efficiency",
    " Green",
    "elt",
    " accidentally",
    "rap",
    " families",
    "rid",
    "aken",
    " reun",
    " occur",
    " deleg",
    "cher",
    "aving",
    "rast",
    " mand",
    "aries",
    " reference",
    " measure",
    " construct",
    " failed",
    " arrange",
    "Furthermore",
    " clim",
    "reement",
    "itious",
    " requires",
    " killer",
    " manner",
    "Ind",
    " puts",
    " command",
    "lor",
    " provision",
    " summit",
    "â",
    " scientific",
    "inese",
    " turned",
    "iate",
    " wait",
    " Irish",
    "bur",
    " weapons",
    " considerable",
    " analysis",
    " La",
    " eth",
    " catch",
    " institutional",
    " 50",
    " gold",
    "ohol",
    "lusions",
    "Ar",
    " guidelines",
    " changed",
    " bi",
    " %",
    " tro",
    " closer",
    "cohol",
    " trip",
    " older",
    " exactly",
    " scope",
    " regime",
    "ether",
    " club",
    " speaking",
    " disapp",
    " unaccept",
    " solutions",
    " rise",
    " parts",
    " helps",
    " driving",
    " cam",
    "pir",
    " Cy",
    " Italian",
    "Is",
    " white",
    " figure",
    " attacked",
    " Bo",
    "rastruct",
    "ki",
    " overall",
    "Am",
    " language",
    " Palestin",
    "Firstly",
    "olf",
    "oday",
    " introduced",
    " Res",
    "va",
    "iture",
    "imension",
    " paragraph",
    "No",
    " interp",
    " easy",
    " cell",
    " City",
    " fish",
    " alive",
    "erson",
    " rapid",
    " race",
    " percent",
    "orpor",
    " lies"
  ],
  "merges": [
    [
      " ",
      "t"
    ],
    [
      "h",
      "e"
    ],
    [
      " ",
      "a"
    ],
    [
      "i",
      "n"
    ],
    [
      " t",
      "he"
    ],
    [
      "r",
      "e"
    ],
    [
      "o",
      "n"
    ],
    [
      "i",
      "s"
    ],
    [
      "a",
      "t"
    ],
    [
      " ",
      "w"
    ],
    [
      " ",
      "s"
    ],
    [
      "e",
      "r"
    ],
    [
      "e",
      "n"
    ],
    [
      " ",
      "o"
    ],
    [
      "n",
      "d"
    ],
    [
      "i",
      "t"
    ],
    [
      " ",
      "c"
    ],
    [
      " ",
      "b"
    ],
    [
      "e",
      "s"
    ],
    [
      " t",
      "o"
    ],
    [
      " ",
      "f"
    ],
    [
      "o",
      "r"
    ],
    [
      " ",
      "p"
    ],
    [
      "a",
      "n"
    ],
    [
      " o",
      "f"
    ],
    [
      " ",
      "in"
    ],
    [
      "in",
      "g"
    ],
    [
      " a",
      "nd"
    ],
    [
      "a",
      "l"
    ],
    [
      " ",
      "h"
    ],
    [
      "a",
      "r"
    ],
    [
      "e",
      "d"
    ],
    [
      "i",
      "on"
    ],
    [
      "o",
      "u"
    ],
    [
      " t",
      "h"
    ],
    [
      " ",
      "m"
    ],
    [
      " ",
      "d"
    ],
    [
      "r",
      "o"
    ],
    [
      "i",
      "c"
    ],
    [
      "l",
      "e"
    ],
    [
      " ",
      ","
    ],
    [
      "en",
      "t"
    ],
    [
      " ",
      "re"
    ],
    [
      "o",
      "m"
    ],
    [
      "a",
      "s"
    ],
    [
      " ",
      "."
    ],
    [
      " ",
      "n"
    ],
    [
      " ",
      "is"
    ],
    [
      "i",
      "l"
    ],
    [
      " b",
      "e"
    ],
    [
      "v",
      "e"
    ],
    [
      " th",
      "at"
    ],
    [
      "s",
      "t"
    ],
    [
      "l",
      "y"
    ],
    [
      " ",
      "e"
    ],
    [
      "c",
      "t"
    ],
    [
      " ",
      "l"
    ],
    [
      " ",
      "g"
    ],
    [
      "i",
      "m"
    ],
    [
      "o",
      "t"
    ],
    [
      "u",
      "t"
    ],
    [
      " ",
      "on"
    ],
    [
      " ",
      "he"
    ],
    [
      " f",
      "or"
    ],
    [
      "i",
      "d"
    ],
    [
      "u",
      "r"
    ],
    [
      " w",
      "h"
    ],
    [
      "s",
      "e"
    ],
    [
      "at",
      "ion"
    ],
    [
      "e",
      "t"
    ],
    [
      " ",
      "C"
    ],
    [
      "o",
      "l"
    ],
    [
      "a",
      "m"
    ],
    [
      "c",
      "e"
    ],
    [
      "p",
      "e"
    ],
    [
      "o",
      "w"
    ],
    [
      " ",
      "u"
    ],
    [
      "it",
      "h"
    ],
    [
      "r",
      "i"
    ],
    [
      "v",
      "er"
    ],
    [
      "a",
      "d"
    ],
    [
      " w",
      "ith"
    ],
    [
      "i",
      "r"
    ],
    [
      " ",
      "M"
    ],
    [
      " w",
      "e"
    ],
    [
      " a",
      "s"
    ],
    [
      " ",
      "it"
    ],
    [
      " s",
      "t"
    ],
    [
      " p",
      "ro"
    ],
    [
      " c",
      "on"
    ],
    [
      " ",
      "E"
    ],
    [
      "a",
      "y"
    ],
    [
      " a",
      "l"
    ],
    [
      "T",
      "he"
    ],
    [
      "m",
      "ent"
    ],
    [
      "g",
      "h"
    ],
    [
      " d",
      "e"
    ],
    [
      " ",
      "S"
    ],
    [
      "il",
      "l"
    ],
    [
      "u",
      "l"
    ],
    [
      "or",
      "t"
    ],
    [
      "c",
      "h"
    ],
    [
      "l",
      "d"
    ],
    [
      "t",
      "er"
    ],
    [
      "r",
      "a"
    ],
    [
      " h",
      "a"
    ],
    [
      " a",
      "re"
    ],
    [
      "re",
      "s"
    ],
    [
      " ",
      "P"
    ],
    [
      " a",
      "n"
    ],
    [
      "he",
      "r"
    ],
    [
      "a",
      "k"
    ],
    [
      " ",
      "I"
    ],
    [
      " ",
      "'"
    ],
    [
      " h",
      "is"
    ],
    [
      " th",
      "is"
    ],
    [
      " b",
      "y"
    ],
    [
      " n",
      "ot"
    ],
    [
      "at",
      "e"
    ],
    [
      "om",
      "m"
    ],
    [
      "i",
      "f"
    ],
    [
      " s",
      "u"
    ],
    [
      " ",
      "y"
    ],
    [
      "p",
      "p"
    ],
    [
      " a",
      "t"
    ],
    [
      " n",
      "e"
    ],
    [
      " ha",
      "ve"
    ],
    [
      "e",
      "m"
    ],
    [
      "ou",
      "ld"
    ],
    [
      "o",
      "s"
    ],
    [
      "o",
      "p"
    ],
    [
      "e",
      "l"
    ],
    [
      "er",
      "s"
    ],
    [
      "es",
      "s"
    ],
    [
      "en",
      "d"
    ],
    [
      "u",
      "ro"
    ],
    [
      "ic",
      "h"
    ],
    [
      " s",
      "h"
    ],
    [
      " ",
      "A"
    ],
    [
      "an",
      "t"
    ],
    [
      "g",
      "e"
    ],
    [
      "a",
      "in"
    ],
    [
      "l",
      "i"
    ],
    [
      "it",
      "y"
    ],
    [
      "o",
      "re"
    ],
    [
      "a",
      "c"
    ],
    [
      " e",
      "x"
    ],
    [
      "u",
      "s"
    ],
    [
      "i",
      "ve"
    ],
    [
      " s",
      "e"
    ],
    [
      "ou",
      "n"
    ],
    [
      "uro",
      "pe"
    ],
    [
      "b",
      "le"
    ],
    [
      " E",
      "urope"
    ],
    [
      " he",
      "r"
    ],
    [
      " wh",
      "ich"
    ],
    [
      " h",
      "as"
    ],
    [
      " ",
      "v"
    ],
    [
      "u",
      "st"
    ],
    [
      "u",
      "n"
    ],
    [
      "gh",
      "t"
    ],
    [
      "ar",
      "t"
    ],
    [
      " ",
      "le"
    ],
    [
      "es",
      "t"
    ],
    [
      "ro",
      "m"
    ],
    [
      "q",
      "u"
    ],
    [
      " ",
      "B"
    ],
    [
      "o",
      "c"
    ],
    [
      "s",
      "ion"
    ],
    [
      "i",
      "es"
    ],
    [
      " ",
      "k"
    ],
    [
      "a",
      "nd"
    ],
    [
      " w",
      "ill"
    ],
    [
      "o",
      "d"
    ],
    [
      "i",
      "v"
    ],
    [
      " c",
      "om"
    ],
    [
      " b",
      "ut"
    ],
    [
      " f",
      "rom"
    ],
    [
      "u",
      "m"
    ],
    [
      "is",
      "t"
    ],
    [
      " C",
      "omm"
    ],
    [
      " in",
      "t"
    ],
    [
      "p",
      "ort"
    ],
    [
      " wh",
      "o"
    ],
    [
      " Europe",
      "an"
    ],
    [
      " ",
      "im"
    ],
    [
      " a",
      "g"
    ],
    [
      "i",
      "al"
    ],
    [
      " ",
      "R"
    ],
    [
      "u",
      "re"
    ],
    [
      "ar",
      "d"
    ],
    [
      " h",
      "im"
    ],
    [
      " d",
      "o"
    ],
    [
      " ",
      "r"
    ],
    [
      "al",
      "l"
    ],
    [
      " w",
      "he"
    ],
    [
      " al",
      "l"
    ],
    [
      "i",
      "e"
    ],
    [
      "ou",
      "r"
    ],
    [
      " o",
      "r"
    ],
    [
      "e",
      "ct"
    ],
    [
      "ou",
      "t"
    ],
    [
      " ",
      "G"
    ],
    [
      " g",
      "o"
    ],
    [
      " the",
      "y"
    ],
    [
      " ",
      "T"
    ],
    [
      " ",
      "en"
    ],
    [
      " ",
      "D"
    ],
    [
      "is",
      "sion"
    ],
    [
      " re",
      "s"
    ],
    [
      "t",
      "her"
    ],
    [
      " c",
      "h"
    ],
    [
      "u",
      "d"
    ],
    [
      " w",
      "or"
    ],
    [
      "om",
      "e"
    ],
    [
      "b",
      "er"
    ],
    [
      "f",
      "f"
    ],
    [
      "re",
      "n"
    ],
    [
      " w",
      "as"
    ],
    [
      "r",
      "ou"
    ],
    [
      " m",
      "e"
    ],
    [
      "i",
      "g"
    ],
    [
      "al",
      "ly"
    ],
    [
      " ",
      "j"
    ],
    [
      " the",
      "ir"
    ],
    [
      " ",
      "-"
    ],
    [
      " a",
      "b"
    ],
    [
      "ion",
      "s"
    ],
    [
      " ",
      "J"
    ],
    [
      "p",
      "t"
    ],
    [
      " ",
      "L"
    ],
    [
      "s",
      "o"
    ],
    [
      " c",
      "an"
    ],
    [
      "k",
      "e"
    ],
    [
      "ou",
      "s"
    ],
    [
      " o",
      "ut"
    ],
    [
      " Comm",
      "ission"
    ],
    [
      "id",
      "ent"
    ],
    [
      "in",
      "d"
    ],
    [
      "ac",
      "k"
    ],
    [
      "t",
      "h"
    ],
    [
      " ",
      "H"
    ],
    [
      "r",
      "y"
    ],
    [
      "ak",
      "e"
    ],
    [
      " ",
      "U"
    ],
    [
      "'",
      "s"
    ],
    [
      "a",
      "b"
    ],
    [
      " u",
      "n"
    ],
    [
      " p",
      "l"
    ],
    [
      " al",
      "so"
    ],
    [
      "oun",
      "t"
    ],
    [
      " p",
      "ol"
    ],
    [
      " the",
      "re"
    ],
    [
      " u",
      "p"
    ],
    [
      " S",
      "t"
    ],
    [
      " y",
      "ou"
    ],
    [
      " w",
      "ould"
    ],
    [
      "ver",
      "y"
    ],
    [
      " d",
      "is"
    ],
    [
      " a",
      "d"
    ],
    [
      " s",
      "he"
    ],
    [
      " ",
      "F"
    ],
    [
      "at",
      "es"
    ],
    [
      " p",
      "art"
    ],
    [
      "i",
      "re"
    ],
    [
      " con",
      "t"
    ],
    [
      " a",
      "c"
    ],
    [
      "p",
      "l"
    ],
    [
      "a",
      "u"
    ],
    [
      "u",
      "e"
    ],
    [
      "an",
      "s"
    ],
    [
      " l",
      "i"
    ],
    [
      "a",
      "g"
    ],
    [
      "as",
      "t"
    ],
    [
      "on",
      "g"
    ],
    [
      "re",
      "e"
    ],
    [
      " be",
      "en"
    ],
    [
      "id",
      "e"
    ],
    [
      "ation",
      "s"
    ],
    [
      "T",
      "h"
    ],
    [
      " s",
      "o"
    ],
    [
      " m",
      "an"
    ],
    [
      "on",
      "e"
    ],
    [
      " be",
      "c"
    ],
    [
      " t",
      "r"
    ],
    [
      "ic",
      "e"
    ],
    [
      " ",
      "N"
    ],
    [
      " the",
      "m"
    ],
    [
      " com",
      "p"
    ],
    [
      "an",
      "ce"
    ],
    [
      " sh",
      "ould"
    ],
    [
      " M",
      "r"
    ],
    [
      "im",
      "e"
    ],
    [
      "o",
      "st"
    ],
    [
      "re",
      "at"
    ],
    [
      " f",
      "a"
    ],
    [
      "ul",
      "t"
    ],
    [
      " on",
      "e"
    ],
    [
      "k",
      "s"
    ],
    [
      "ar",
      "y"
    ],
    [
      " a",
      "m"
    ],
    [
      "re",
      "d"
    ],
    [
      "ve",
      "l"
    ],
    [
      " ",
      "1"
    ],
    [
      " P",
      "res"
    ],
    [
      "a",
      "p"
    ],
    [
      " U",
      "n"
    ],
    [
      " re",
      "g"
    ],
    [
      "e",
      "ar"
    ],
    [
      "am",
      "ent"
    ],
    [
      " ",
      "K"
    ],
    [
      " o",
      "ur"
    ],
    [
      "c",
      "on"
    ],
    [
      " int",
      "o"
    ],
    [
      " m",
      "ust"
    ],
    [
      "W",
      "e"
    ],
    [
      "a",
      "ge"
    ],
    [
      " o",
      "ther"
    ],
    [
      "c",
      "ess"
    ],
    [
      "a",
      "ble"
    ],
    [
      "is",
      "h"
    ],
    [
      " ab",
      "out"
    ],
    [
      "r",
      "u"
    ],
    [
      "l",
      "l"
    ],
    [
      "I",
      "n"
    ],
    [
      "i",
      "z"
    ],
    [
      "ar",
      "li"
    ],
    [
      "i",
      "p"
    ],
    [
      " ",
      "qu"
    ],
    [
      "pp",
      "ort"
    ],
    [
      " m",
      "ore"
    ],
    [
      "am",
      "e"
    ],
    [
      "i",
      "a"
    ],
    [
      " u",
      "s"
    ],
    [
      "o",
      "se"
    ],
    [
      "or",
      "m"
    ],
    [
      "el",
      "l"
    ],
    [
      " in",
      "c"
    ],
    [
      "i",
      "ght"
    ],
    [
      "f",
      "ter"
    ],
    [
      "ic",
      "al"
    ],
    [
      "ment",
      "s"
    ],
    [
      " Pres",
      "ident"
    ],
    [
      "d",
      "u"
    ],
    [
      " li",
      "ke"
    ],
    [
      " c",
      "ount"
    ],
    [
      " wor",
      "k"
    ],
    [
      "it",
      "t"
    ],
    [
      " c",
      "omm"
    ],
    [
      "ri",
      "es"
    ],
    [
      "0",
      "0"
    ],
    [
      "i",
      "le"
    ],
    [
      "I",
      "t"
    ],
    [
      " a",
      "r"
    ],
    [
      "f",
      "ore"
    ],
    [
      " c",
      "l"
    ],
    [
      " ",
      "W"
    ],
    [
      " ",
      "ri"
    ],
    [
      " a",
      "ct"
    ],
    [
      "n",
      "ow"
    ],
    [
      " whe",
      "n"
    ],
    [
      " e",
      "v"
    ],
    [
      "at",
      "ed"
    ],
    [
      "arli",
      "ament"
    ],
    [
      "em",
      "ber"
    ],
    [
      "in",
      "e"
    ],
    [
      " it",
      "s"
    ],
    [
      " p",
      "e"
    ],
    [
      "a",
      "v"
    ],
    [
      "res",
      "s"
    ],
    [
      "p",
      "er"
    ],
    [
      " a",
      "pp"
    ],
    [
      " p",
      "re"
    ],
    [
      " l",
      "o"
    ],
    [
      " re",
      "port"
    ],
    [
      "o",
      "in"
    ],
    [
      " ",
      "2"
    ],
    [
      "en",
      "s"
    ],
    [
      " at",
      "t"
    ],
    [
      "en",
      "ce"
    ],
    [
      "p",
      "os"
    ],
    [
      " ne",
      "ed"
    ],
    [
      "e",
      "e"
    ],
    [
      "i",
      "ous"
    ],
    [
      " of",
      "f"
    ],
    [
      " de",
      "c"
    ],
    [
      "o",
      "g"
    ],
    [
      "w",
      "n"
    ],
    [
      " ne",
      "w"
    ],
    [
      " Un",
      "ion"
    ],
    [
      "it",
      "ion"
    ],
    [
      " t",
      "ime"
    ],
    [
      "an",
      "c"
    ],
    [
      "au",
      "se"
    ],
    [
      " m",
      "ar"
    ],
    [
      "s",
      "i"
    ],
    [
      "nd",
      "er"
    ],
    [
      " wh",
      "at"
    ],
    [
      "se",
      "l"
    ],
    [
      "an",
      "g"
    ],
    [
      "ad",
      "e"
    ],
    [
      " c",
      "o"
    ],
    [
      " on",
      "ly"
    ],
    [
      "o",
      "y"
    ],
    [
      " con",
      "s"
    ],
    [
      " P",
      "arliament"
    ],
    [
      " ri",
      "ght"
    ],
    [
      "a",
      "ch"
    ],
    [
      " k",
      "now"
    ],
    [
      "e",
      "ver"
    ],
    [
      "f",
      "orm"
    ],
    [
      " im",
      "p"
    ],
    [
      " y",
      "ear"
    ],
    [
      " p",
      "os"
    ],
    [
      " ",
      "ro"
    ],
    [
      " ",
      "very"
    ],
    [
      "ur",
      "n"
    ],
    [
      " be",
      "t"
    ],
    [
      "oun",
      "c"
    ],
    [
      "o",
      "b"
    ],
    [
      "pe",
      "ct"
    ],
    [
      " St",
      "ates"
    ],
    [
      "H",
      "e"
    ],
    [
      "ig",
      "n"
    ],
    [
      "o",
      "k"
    ],
    [
      " ag",
      "ain"
    ],
    [
      "as",
      "e"
    ],
    [
      " g",
      "et"
    ],
    [
      "is",
      "e"
    ],
    [
      " o",
      "ver"
    ],
    [
      "op",
      "le"
    ],
    [
      "a",
      "re"
    ],
    [
      " ",
      "ra"
    ],
    [
      "u",
      "b"
    ],
    [
      " con",
      "c"
    ],
    [
      " n",
      "o"
    ],
    [
      " s",
      "a"
    ],
    [
      " th",
      "an"
    ],
    [
      " re",
      "c"
    ],
    [
      " t",
      "ak"
    ],
    [
      " t",
      "w"
    ],
    [
      " f",
      "in"
    ],
    [
      "ren",
      "t"
    ],
    [
      " s",
      "ome"
    ],
    [
      " M",
      "ember"
    ],
    [
      "g",
      "et"
    ],
    [
      " u",
      "nder"
    ],
    [
      " ",
      "if"
    ],
    [
      "Th",
      "is"
    ],
    [
      "f",
      "e"
    ],
    [
      " m",
      "y"
    ],
    [
      "or",
      "d"
    ],
    [
      " im",
      "port"
    ],
    [
      "j",
      "ect"
    ],
    [
      "oin",
      "t"
    ],
    [
      "ounc",
      "il"
    ],
    [
      "ter",
      "n"
    ],
    [
      " f",
      "ind"
    ],
    [
      "en",
      "c"
    ],
    [
      "ation",
      "al"
    ],
    [
      " whe",
      "re"
    ],
    [
      "a",
      "ce"
    ],
    [
      " the",
      "se"
    ],
    [
      " E",
      "U"
    ],
    [
      "v",
      "es"
    ],
    [
      "iv",
      "es"
    ],
    [
      " pe",
      "ople"
    ],
    [
      " C",
      "h"
    ],
    [
      " C",
      "ouncil"
    ],
    [
      " the",
      "n"
    ],
    [
      " t",
      "e"
    ],
    [
      "l",
      "ic"
    ],
    [
      " bec",
      "ause"
    ],
    [
      "ay",
      "s"
    ],
    [
      " ",
      "`"
    ],
    [
      "ow",
      "ever"
    ],
    [
      "g",
      "r"
    ],
    [
      "he",
      "n"
    ],
    [
      "ir",
      "st"
    ],
    [
      " in",
      "v"
    ],
    [
      " h",
      "ad"
    ],
    [
      "it",
      "e"
    ],
    [
      "in",
      "k"
    ],
    [
      " c",
      "r"
    ],
    [
      "ut",
      "ion"
    ],
    [
      " e",
      "m"
    ],
    [
      " j",
      "ust"
    ],
    [
      " pro",
      "pos"
    ],
    [
      " s",
      "pe"
    ],
    [
      " n",
      "ow"
    ],
    [
      "ing",
      "s"
    ],
    [
      " an",
      "y"
    ],
    [
      "ct",
      "ion"
    ],
    [
      " s",
      "c"
    ],
    [
      "it",
      "ies"
    ],
    [
      "w",
      "e"
    ],
    [
      " in",
      "d"
    ],
    [
      " '",
      "'"
    ],
    [
      " s",
      "p"
    ],
    [
      "er",
      "m"
    ],
    [
      "il",
      "d"
    ],
    [
      " tw",
      "o"
    ],
    [
      "if",
      "e"
    ],
    [
      " ",
      "i"
    ],
    [
      " s",
      "er"
    ],
    [
      "as",
      "s"
    ],
    [
      " pol",
      "ic"
    ],
    [
      "at",
      "her"
    ],
    [
      " `",
      "`"
    ],
    [
      " a",
      "fter"
    ],
    [
      "Â",
      " "
    ],
    [
      "vel",
      "op"
    ],
    [
      "i",
      "an"
    ],
    [
      " t",
      "ake"
    ],
    [
      " p",
      "r"
    ],
    [
      " be",
      "ing"
    ],
    [
      " dis",
      "c"
    ],
    [
      "at",
      "er"
    ],
    [
      "ot",
      "her"
    ],
    [
      " e",
      "ff"
    ],
    [
      " o",
      "b"
    ],
    [
      "n",
      "e"
    ],
    [
      " ",
      "V"
    ],
    [
      " t",
      "ra"
    ],
    [
      "e",
      "p"
    ],
    [
      "or",
      "y"
    ],
    [
      "v",
      "ing"
    ],
    [
      " b",
      "ack"
    ],
    [
      "al",
      "s"
    ],
    [
      " m",
      "ake"
    ],
    [
      "ou",
      "se"
    ],
    [
      " ac",
      "c"
    ],
    [
      " su",
      "pport"
    ],
    [
      " count",
      "ries"
    ],
    [
      "â",
      ""
    ],
    [
      " f",
      "e"
    ],
    [
      "ow",
      "n"
    ],
    [
      "il",
      "ity"
    ],
    [
      "x",
      "t"
    ],
    [
      "d",
      "er"
    ],
    [
      "il",
      "y"
    ],
    [
      "u",
      "nd"
    ],
    [
      " se",
      "e"
    ],
    [
      " in",
      "st"
    ],
    [
      "li",
      "e"
    ],
    [
      "u",
      "res"
    ],
    [
      " w",
      "ant"
    ],
    [
      "v",
      "ed"
    ],
    [
      "a",
      "ct"
    ],
    [
      "con",
      "om"
    ],
    [
      "ic",
      "k"
    ],
    [
      "at",
      "ing"
    ],
    [
      " f",
      "irst"
    ],
    [
      "l",
      "ow"
    ],
    [
      " ",
      "end"
    ],
    [
      "er",
      "n"
    ],
    [
      "ul",
      "ar"
    ],
    [
      " de",
      "velop"
    ],
    [
      " ",
      "O"
    ],
    [
      " we",
      "re"
    ],
    [
      " re",
      "m"
    ],
    [
      " re",
      "l"
    ],
    [
      " p",
      "er"
    ],
    [
      "ri",
      "end"
    ],
    [
      "o",
      "ver"
    ],
    [
      " de",
      "m"
    ],
    [
      " le",
      "g"
    ],
    [
      " as",
      "s"
    ],
    [
      "o",
      "od"
    ],
    [
      "rou",
      "p"
    ],
    [
      " import",
      "ant"
    ],
    [
      "or",
      "s"
    ],
    [
      " k",
      "ill"
    ],
    [
      "we",
      "en"
    ],
    [
      "c",
      "ed"
    ],
    [
      " part",
      "ic"
    ],
    [
      " w",
      "ay"
    ],
    [
      "at",
      "h"
    ],
    [
      " ",
      "("
    ],
    [
      "ou",
      "gh"
    ],
    [
      "ic",
      "t"
    ],
    [
      " bet",
      "ween"
    ],
    [
      "u",
      "c"
    ],
    [
      "t",
      "ain"
    ],
    [
      "f",
      "ul"
    ],
    [
      "ot",
      "h"
    ],
    [
      "g",
      "in"
    ],
    [
      "if",
      "ic"
    ],
    [
      "sel",
      "f"
    ],
    [
      " su",
      "b"
    ],
    [
      "u",
      "es"
    ],
    [
      "rou",
      "gh"
    ],
    [
      "l",
      "ud"
    ],
    [
      "p",
      "on"
    ],
    [
      " be",
      "lie"
    ],
    [
      "ol",
      "d"
    ],
    [
      "ent",
      "ion"
    ],
    [
      "a",
      "w"
    ],
    [
      "res",
      "ent"
    ],
    [
      "M",
      "r"
    ],
    [
      " do",
      "es"
    ],
    [
      "le",
      "ar"
    ],
    [
      "A",
      "s"
    ],
    [
      "am",
      "p"
    ],
    [
      " is",
      "s"
    ],
    [
      " tr",
      "ans"
    ],
    [
      " re",
      "al"
    ],
    [
      " ag",
      "ree"
    ],
    [
      "w",
      "ard"
    ],
    [
      "k",
      "et"
    ],
    [
      "at",
      "ive"
    ],
    [
      "i",
      "gh"
    ],
    [
      " p",
      "oint"
    ],
    [
      " e",
      "conom"
    ],
    [
      " s",
      "oc"
    ],
    [
      " su",
      "ch"
    ],
    [
      " d",
      "if"
    ],
    [
      " t",
      "ell"
    ],
    [
      "t",
      "e"
    ],
    [
      " th",
      "rough"
    ],
    [
      " s",
      "ay"
    ],
    [
      " polic",
      "y"
    ],
    [
      "ire",
      "ct"
    ],
    [
      "l",
      "p"
    ],
    [
      " pro",
      "v"
    ],
    [
      " c",
      "all"
    ],
    [
      " we",
      "ll"
    ],
    [
      "ce",
      "pt"
    ],
    [
      " re",
      "t"
    ],
    [
      "he",
      "s"
    ],
    [
      " st",
      "r"
    ],
    [
      "ur",
      "ing"
    ],
    [
      " o",
      "wn"
    ],
    [
      " fa",
      "ct"
    ],
    [
      "re",
      "st"
    ],
    [
      " c",
      "ar"
    ],
    [
      " he",
      "lp"
    ],
    [
      " ",
      "ent"
    ],
    [
      "m",
      "s"
    ],
    [
      " th",
      "ink"
    ],
    [
      " o",
      "p"
    ],
    [
      " year",
      "s"
    ],
    [
      " a",
      "w"
    ],
    [
      " pol",
      "it"
    ],
    [
      "ou",
      "nd"
    ],
    [
      "ro",
      "w"
    ],
    [
      "un",
      "ity"
    ],
    [
      "'",
      "t"
    ],
    [
      " th",
      "ose"
    ],
    [
      " d",
      "es"
    ],
    [
      " ev",
      "en"
    ],
    [
      "c",
      "es"
    ],
    [
      " int",
      "e"
    ],
    [
      " e",
      "very"
    ],
    [
      "g",
      "y"
    ],
    [
      " con",
      "f"
    ],
    [
      "si",
      "ble"
    ],
    [
      " me",
      "et"
    ],
    [
      " pro",
      "ble"
    ],
    [
      "u",
      "ch"
    ],
    [
      "o",
      "v"
    ],
    [
      "he",
      "d"
    ],
    [
      "ie",
      "w"
    ],
    [
      " g",
      "u"
    ],
    [
      " s",
      "y"
    ],
    [
      " re",
      "f"
    ],
    [
      " be",
      "fore"
    ],
    [
      "um",
      "an"
    ],
    [
      " s",
      "et"
    ],
    [
      " pro",
      "du"
    ],
    [
      " m",
      "ade"
    ],
    [
      " go",
      "od"
    ],
    [
      " app",
      "ro"
    ],
    [
      " again",
      "st"
    ],
    [
      " conc",
      "ern"
    ],
    [
      "u",
      "al"
    ],
    [
      "m",
      "er"
    ],
    [
      " partic",
      "ular"
    ],
    [
      " f",
      "am"
    ],
    [
      " res",
      "pon"
    ],
    [
      "a",
      "il"
    ],
    [
      "a",
      "ir"
    ],
    [
      " qu",
      "est"
    ],
    [
      "n",
      "ing"
    ],
    [
      "f",
      "t"
    ],
    [
      " man",
      "y"
    ],
    [
      "ub",
      "lic"
    ],
    [
      " w",
      "om"
    ],
    [
      "it",
      "s"
    ],
    [
      "p",
      "h"
    ],
    [
      " v",
      "ot"
    ],
    [
      "h",
      "ing"
    ],
    [
      " g",
      "reat"
    ],
    [
      "d",
      "ay"
    ],
    [
      " pro",
      "t"
    ],
    [
      " wh",
      "ile"
    ],
    [
      " b",
      "as"
    ],
    [
      " f",
      "riend"
    ],
    [
      "The",
      "y"
    ],
    [
      "it",
      "ed"
    ],
    [
      "o",
      "ve"
    ],
    [
      " c",
      "lear"
    ],
    [
      " 1",
      "9"
    ],
    [
      "ad",
      "y"
    ],
    [
      "an",
      "ge"
    ],
    [
      "t",
      "ing"
    ],
    [
      "a",
      "j"
    ],
    [
      " l",
      "ong"
    ],
    [
      "rou",
      "nd"
    ],
    [
      "le",
      "ct"
    ],
    [
      " inc",
      "lud"
    ],
    [
      "u",
      "ally"
    ],
    [
      " d",
      "own"
    ],
    [
      " se",
      "c"
    ],
    [
      "t",
      "s"
    ],
    [
      "is",
      "ion"
    ],
    [
      " mar",
      "ket"
    ],
    [
      " b",
      "l"
    ],
    [
      "H",
      "owever"
    ],
    [
      "enc",
      "y"
    ],
    [
      "ur",
      "al"
    ],
    [
      "h",
      "ip"
    ],
    [
      "ic",
      "es"
    ],
    [
      " in",
      "form"
    ],
    [
      " s",
      "ame"
    ],
    [
      " c",
      "ol"
    ],
    [
      "c",
      "ial"
    ],
    [
      "itt",
      "ee"
    ],
    [
      " b",
      "oth"
    ],
    [
      "ar",
      "m"
    ],
    [
      " ",
      "es"
    ],
    [
      " belie",
      "ve"
    ],
    [
      " h",
      "ow"
    ],
    [
      " f",
      "il"
    ],
    [
      "in",
      "ce"
    ],
    [
      " ad",
      "d"
    ],
    [
      "i",
      "ed"
    ],
    [
      " c",
      "ould"
    ],
    [
      " d",
      "irect"
    ],
    [
      " h",
      "uman"
    ],
    [
      " m",
      "on"
    ],
    [
      " right",
      "s"
    ],
    [
      " s",
      "it"
    ],
    [
      "a",
      "h"
    ],
    [
      " st",
      "ill"
    ],
    [
      "b",
      "ers"
    ],
    [
      "W",
      "h"
    ],
    [
      "t",
      "y"
    ],
    [
      " de",
      "b"
    ],
    [
      "on",
      "s"
    ],
    [
      "W",
      "hen"
    ],
    [
      "k",
      "ing"
    ],
    [
      " m",
      "ak"
    ],
    [
      " m",
      "ost"
    ],
    [
      "st",
      "em"
    ],
    [
      "ol",
      "low"
    ],
    [
      " polit",
      "ical"
    ],
    [
      "m",
      "e"
    ],
    [
      " a",
      "p"
    ],
    [
      " cont",
      "in"
    ],
    [
      " 2",
      "00"
    ],
    [
      " l",
      "ife"
    ],
    [
      "l",
      "ed"
    ],
    [
      " c",
      "a"
    ],
    [
      " ch",
      "ild"
    ],
    [
      " to",
      "o"
    ],
    [
      " re",
      "qu"
    ],
    [
      " re",
      "p"
    ],
    [
      " g",
      "roup"
    ],
    [
      "en",
      "e"
    ],
    [
      " there",
      "fore"
    ],
    [
      " m",
      "uch"
    ],
    [
      " ex",
      "t"
    ],
    [
      "r",
      "ic"
    ],
    [
      "gr",
      "am"
    ],
    [
      "ut",
      "h"
    ],
    [
      "The",
      "re"
    ],
    [
      "ra",
      "ct"
    ],
    [
      " or",
      "der"
    ],
    [
      "u",
      "ation"
    ],
    [
      " s",
      "m"
    ],
    [
      "is",
      "ed"
    ],
    [
      " le",
      "ad"
    ],
    [
      "t",
      "ed"
    ],
    [
      "ri",
      "b"
    ],
    [
      " f",
      "und"
    ],
    [
      " econom",
      "ic"
    ],
    [
      " u",
      "se"
    ],
    [
      "r",
      "it"
    ],
    [
      "l",
      "es"
    ],
    [
      "S",
      "he"
    ],
    [
      " b",
      "r"
    ],
    [
      " ret",
      "urn"
    ],
    [
      " p",
      "ut"
    ],
    [
      " sy",
      "stem"
    ],
    [
      " be",
      "h"
    ],
    [
      "or",
      "k"
    ],
    [
      " in",
      "tern"
    ],
    [
      " st",
      "art"
    ],
    [
      " c",
      "our"
    ],
    [
      "en",
      "er"
    ],
    [
      " reg",
      "ard"
    ],
    [
      "ar",
      "ge"
    ],
    [
      "le",
      "ment"
    ],
    [
      "A",
      "fter"
    ],
    [
      " in",
      "ter"
    ],
    [
      "id",
      "es"
    ],
    [
      "e",
      "c"
    ],
    [
      " fil",
      "m"
    ],
    [
      " f",
      "ollow"
    ],
    [
      " be",
      "gin"
    ],
    [
      " p",
      "ers"
    ],
    [
      " soc",
      "ial"
    ],
    [
      "ent",
      "s"
    ],
    [
      "oun",
      "g"
    ],
    [
      "is",
      "m"
    ],
    [
      " ex",
      "p"
    ],
    [
      "ar",
      "s"
    ],
    [
      " prot",
      "ect"
    ],
    [
      "at",
      "ter"
    ],
    [
      " f",
      "ather"
    ],
    [
      "pl",
      "oy"
    ],
    [
      " wor",
      "ld"
    ],
    [
      " sa",
      "id"
    ],
    [
      "o",
      "pe"
    ],
    [
      " sh",
      "ow"
    ],
    [
      "g",
      "an"
    ],
    [
      "er",
      "tain"
    ],
    [
      " l",
      "ast"
    ],
    [
      " ha",
      "nd"
    ],
    [
      " count",
      "ry"
    ],
    [
      "iv",
      "en"
    ],
    [
      " fin",
      "anc"
    ],
    [
      "an",
      "k"
    ],
    [
      " pro",
      "m"
    ],
    [
      " en",
      "s"
    ],
    [
      "em",
      "bers"
    ],
    [
      " h",
      "ome"
    ],
    [
      "l",
      "and"
    ],
    [
      " he",
      "re"
    ],
    [
      " in",
      "s"
    ],
    [
      " p",
      "ublic"
    ],
    [
      " s",
      "ur"
    ],
    [
      "g",
      "g"
    ],
    [
      " inc",
      "re"
    ],
    [
      "ar",
      "n"
    ],
    [
      "a",
      "ve"
    ],
    [
      " b",
      "ro"
    ],
    [
      " c",
      "ur"
    ],
    [
      " eff",
      "ect"
    ],
    [
      " pro",
      "gram"
    ],
    [
      " p",
      "ri"
    ],
    [
      " inte",
      "rest"
    ],
    [
      " b",
      "o"
    ],
    [
      " res",
      "ult"
    ],
    [
      "ate",
      "ly"
    ],
    [
      "it",
      "iz"
    ],
    [
      " y",
      "oung"
    ],
    [
      "o",
      "h"
    ],
    [
      " f",
      "r"
    ],
    [
      "er",
      "ation"
    ],
    [
      " h",
      "igh"
    ],
    [
      "ir",
      "l"
    ],
    [
      "a",
      "x"
    ],
    [
      " de",
      "f"
    ],
    [
      " fam",
      "ily"
    ],
    [
      " me",
      "as"
    ],
    [
      "et",
      "y"
    ],
    [
      " propos",
      "al"
    ],
    [
      "one",
      "y"
    ],
    [
      " l",
      "oc"
    ],
    [
      " f",
      "ut"
    ],
    [
      "con",
      "d"
    ],
    [
      " ne",
      "xt"
    ],
    [
      "ud",
      "get"
    ],
    [
      " ",
      "Y"
    ],
    [
      " sit",
      "uation"
    ],
    [
      " d",
      "ay"
    ],
    [
      " ha",
      "pp"
    ],
    [
      " y",
      "our"
    ],
    [
      "n",
      "ment"
    ],
    [
      " v",
      "iew"
    ],
    [
      " quest",
      "ion"
    ],
    [
      "is",
      "ter"
    ],
    [
      " m",
      "ay"
    ],
    [
      " pl",
      "an"
    ],
    [
      "al",
      "th"
    ],
    [
      "om",
      "et"
    ],
    [
      " tell",
      "s"
    ],
    [
      " fut",
      "ure"
    ],
    [
      " go",
      "ver"
    ],
    [
      " n",
      "um"
    ],
    [
      " c",
      "itiz"
    ],
    [
      " pl",
      "ace"
    ],
    [
      " A",
      "n"
    ],
    [
      "ol",
      "ution"
    ],
    [
      "Th",
      "at"
    ],
    [
      " ex",
      "pl"
    ],
    [
      " d",
      "ra"
    ],
    [
      "em",
      "pt"
    ],
    [
      " h",
      "ouse"
    ],
    [
      "B",
      "ut"
    ],
    [
      " Commission",
      "er"
    ],
    [
      "in",
      "c"
    ],
    [
      "ir",
      "on"
    ],
    [
      "ut",
      "e"
    ],
    [
      "s",
      "s"
    ],
    [
      "R",
      "B"
    ],
    [
      " ad",
      "op"
    ],
    [
      " pre",
      "v"
    ],
    [
      " I",
      "n"
    ],
    [
      " t",
      "urn"
    ],
    [
      "r",
      "at"
    ],
    [
      " b",
      "u"
    ],
    [
      " am",
      "end"
    ],
    [
      " d",
      "et"
    ],
    [
      " tak",
      "en"
    ],
    [
      "i",
      "ent"
    ],
    [
      "ru",
      "ct"
    ],
    [
      " p",
      "resent"
    ],
    [
      "n",
      "er"
    ],
    [
      " l",
      "aw"
    ],
    [
      " develop",
      "ment"
    ],
    [
      " ser",
      "v"
    ],
    [
      " f",
      "ul"
    ],
    [
      "O",
      "n"
    ],
    [
      " s",
      "ign"
    ],
    [
      " iss",
      "ue"
    ],
    [
      "i",
      "b"
    ],
    [
      "m",
      "en"
    ],
    [
      "n",
      "ot"
    ],
    [
      " r",
      "un"
    ],
    [
      "re",
      "t"
    ],
    [
      " pl",
      "ay"
    ],
    [
      "ol",
      "og"
    ],
    [
      "ver",
      "s"
    ],
    [
      " n",
      "ational"
    ],
    [
      " re",
      "st"
    ],
    [
      " lo",
      "ve"
    ],
    [
      "m",
      "an"
    ],
    [
      " m",
      "oney"
    ],
    [
      "re",
      "ady"
    ],
    [
      " pos",
      "sible"
    ],
    [
      " Comm",
      "ittee"
    ],
    [
      " com",
      "e"
    ],
    [
      " lo",
      "ok"
    ],
    [
      " le",
      "vel"
    ],
    [
      " a",
      "ble"
    ],
    [
      " comp",
      "et"
    ],
    [
      " h",
      "owever"
    ],
    [
      "L",
      "RB"
    ],
    [
      " c",
      "ertain"
    ],
    [
      " al",
      "ready"
    ],
    [
      " su",
      "c"
    ],
    [
      "c",
      "y"
    ],
    [
      " pro",
      "cess"
    ],
    [
      "o",
      "ol"
    ],
    [
      " an",
      "other"
    ],
    [
      " f",
      "all"
    ],
    [
      " dif",
      "fe"
    ],
    [
      " c",
      "ase"
    ],
    [
      "in",
      "es"
    ],
    [
      "ul",
      "ation"
    ],
    [
      " citiz",
      "ens"
    ],
    [
      " th",
      "ree"
    ],
    [
      "v",
      "iron"
    ],
    [
      "v",
      "en"
    ],
    [
      " M",
      "ar"
    ],
    [
      " s",
      "im"
    ],
    [
      " u",
      "h"
    ],
    [
      "k",
      "ed"
    ],
    [
      "viron",
      "ment"
    ],
    [
      " t",
      "al"
    ],
    [
      " f",
      "l"
    ],
    [
      " m",
      "atter"
    ],
    [
      " with",
      "out"
    ],
    [
      "â",
      ""
    ],
    [
      "er",
      "r"
    ],
    [
      " inv",
      "ol"
    ],
    [
      "ch",
      "ie"
    ],
    [
      " st",
      "ate"
    ],
    [
      " financ",
      "ial"
    ],
    [
      " with",
      "in"
    ],
    [
      " go",
      "ing"
    ],
    [
      " g",
      "ive"
    ],
    [
      " ",
      "The"
    ],
    [
      " C",
      "on"
    ],
    [
      " st",
      "and"
    ],
    [
      " go",
      "es"
    ],
    [
      " p",
      "ow"
    ],
    [
      "al",
      "f"
    ],
    [
      " tak",
      "es"
    ],
    [
      " can",
      "not"
    ],
    [
      " disc",
      "us"
    ],
    [
      " aw",
      "ay"
    ],
    [
      " g",
      "irl"
    ],
    [
      " t",
      "ry"
    ],
    [
      "si",
      "b"
    ],
    [
      " f",
      "ight"
    ],
    [
      " b",
      "us"
    ],
    [
      " cons",
      "id"
    ],
    [
      " s",
      "omet"
    ],
    [
      " m",
      "in"
    ],
    [
      "A",
      "t"
    ],
    [
      " all",
      "ow"
    ],
    [
      " res",
      "pect"
    ],
    [
      " m",
      "ain"
    ],
    [
      "e",
      "an"
    ],
    [
      " ",
      "â"
    ],
    [
      " to",
      "day"
    ],
    [
      " deb",
      "ate"
    ],
    [
      " c",
      "re"
    ],
    [
      " re",
      "as"
    ],
    [
      " d",
      "id"
    ],
    [
      "is",
      "s"
    ],
    [
      "ur",
      "ity"
    ],
    [
      " b",
      "udget"
    ],
    [
      "iv",
      "ing"
    ],
    [
      " meas",
      "ures"
    ],
    [
      " cour",
      "se"
    ],
    [
      " ",
      "est"
    ],
    [
      " o",
      "ld"
    ],
    [
      "ist",
      "s"
    ],
    [
      "or",
      "ity"
    ],
    [
      "ur",
      "ther"
    ],
    [
      " co",
      "op"
    ],
    [
      "re",
      "ed"
    ],
    [
      " inform",
      "ation"
    ],
    [
      " ac",
      "cept"
    ],
    [
      " le",
      "av"
    ],
    [
      " a",
      "chie"
    ],
    [
      " m",
      "other"
    ],
    [
      " d",
      "uring"
    ],
    [
      " j",
      "ob"
    ],
    [
      " h",
      "ope"
    ],
    [
      " de",
      "al"
    ],
    [
      " are",
      "a"
    ],
    [
      " inv",
      "est"
    ],
    [
      " find",
      "s"
    ],
    [
      " Mr",
      "s"
    ],
    [
      " A",
      "r"
    ],
    [
      "e",
      "ur"
    ],
    [
      "od",
      "y"
    ],
    [
      "it",
      "al"
    ],
    [
      " s",
      "ince"
    ],
    [
      "as",
      "ed"
    ],
    [
      "u",
      "g"
    ],
    [
      " ne",
      "g"
    ],
    [
      "l",
      "ess"
    ],
    [
      " a",
      "ff"
    ],
    [
      " ar",
      "ri"
    ],
    [
      " t",
      "erm"
    ],
    [
      " g",
      "ener"
    ],
    [
      "ut",
      "ions"
    ],
    [
      " v",
      "is"
    ],
    [
      " att",
      "empt"
    ],
    [
      " imp",
      "lement"
    ],
    [
      " wh",
      "y"
    ],
    [
      "ct",
      "or"
    ],
    [
      "ri",
      "ed"
    ],
    [
      "e",
      "w"
    ],
    [
      "C",
      "B"
    ],
    [
      " e",
      "ach"
    ],
    [
      " con",
      "st"
    ],
    [
      "is",
      "l"
    ],
    [
      "in",
      "ess"
    ],
    [
      "f",
      "ic"
    ],
    [
      " agree",
      "ment"
    ],
    [
      " num",
      "ber"
    ],
    [
      " p",
      "h"
    ],
    [
      " f",
      "ar"
    ],
    [
      " es",
      "c"
    ],
    [
      "is",
      "ation"
    ],
    [
      "ch",
      "n"
    ],
    [
      " he",
      "ad"
    ],
    [
      "ro",
      "l"
    ],
    [
      "ain",
      "s"
    ],
    [
      " dem",
      "oc"
    ],
    [
      " ",
      ";"
    ],
    [
      "w",
      "ork"
    ],
    [
      " ad",
      "v"
    ],
    [
      " wom",
      "en"
    ],
    [
      " bec",
      "ome"
    ],
    [
      "im",
      "in"
    ],
    [
      "p",
      "r"
    ],
    [
      " him",
      "self"
    ],
    [
      "n",
      "ess"
    ],
    [
      " n",
      "ight"
    ],
    [
      " en",
      "vironment"
    ],
    [
      " con",
      "d"
    ],
    [
      "an",
      "y"
    ],
    [
      " comm",
      "on"
    ],
    [
      "o",
      "ot"
    ],
    [
      " op",
      "en"
    ],
    [
      "l",
      "ing"
    ],
    [
      " in",
      "f"
    ],
    [
      " bec",
      "om"
    ],
    [
      "on",
      "d"
    ],
    [
      "ar",
      "ch"
    ],
    [
      " in",
      "it"
    ],
    [
      " a",
      "uth"
    ],
    [
      " sm",
      "all"
    ],
    [
      "it",
      "ions"
    ],
    [
      " rel",
      "ations"
    ],
    [
      "ir",
      "d"
    ],
    [
      "ro",
      "ss"
    ],
    [
      " to",
      "get"
    ],
    [
      " toget",
      "her"
    ],
    [
      " imp",
      "ro"
    ],
    [
      " m",
      "aj"
    ],
    [
      " leg",
      "isl"
    ],
    [
      " cur",
      "rent"
    ],
    [
      " F",
      "r"
    ],
    [
      " c",
      "or"
    ],
    [
      "ent",
      "ly"
    ],
    [
      " em",
      "ploy"
    ],
    [
      " pol",
      "ice"
    ],
    [
      " ",
      "3"
    ],
    [
      "as",
      "h"
    ],
    [
      " or",
      "gan"
    ],
    [
      " de",
      "ath"
    ],
    [
      " g",
      "l"
    ],
    [
      " spe",
      "c"
    ],
    [
      " re",
      "ally"
    ],
    [
      " inst",
      "it"
    ],
    [
      "ward",
      "s"
    ],
    [
      "au",
      "gh"
    ],
    [
      " ens",
      "ure"
    ],
    [
      " a",
      "v"
    ],
    [
      " ha",
      "ving"
    ],
    [
      "ag",
      "es"
    ],
    [
      "pport",
      "eur"
    ],
    [
      " ob",
      "ject"
    ],
    [
      " g",
      "iven"
    ],
    [
      " fe",
      "w"
    ],
    [
      " p",
      "ur"
    ],
    [
      " D",
      "e"
    ],
    [
      " S",
      "h"
    ],
    [
      " com",
      "es"
    ],
    [
      " proble",
      "m"
    ],
    [
      " pr",
      "inc"
    ],
    [
      "y",
      "s"
    ],
    [
      " proble",
      "ms"
    ],
    [
      " en",
      "er"
    ],
    [
      " me",
      "ans"
    ],
    [
      " le",
      "t"
    ],
    [
      " comp",
      "le"
    ],
    [
      " ap",
      "pe"
    ],
    [
      " ne",
      "cess"
    ],
    [
      " intern",
      "ational"
    ],
    [
      " coop",
      "eration"
    ],
    [
      " g",
      "r"
    ],
    [
      "al",
      "ity"
    ],
    [
      " act",
      "ion"
    ],
    [
      "ill",
      "ion"
    ],
    [
      "ar",
      "k"
    ],
    [
      " st",
      "ud"
    ],
    [
      " im",
      "m"
    ],
    [
      "a",
      "rent"
    ],
    [
      "is",
      "es"
    ],
    [
      "ch",
      "ool"
    ],
    [
      "i",
      "o"
    ],
    [
      "ee",
      "p"
    ],
    [
      " re",
      "ve"
    ],
    [
      "is",
      "on"
    ],
    [
      "c",
      "c"
    ],
    [
      "amp",
      "le"
    ],
    [
      " att",
      "ack"
    ],
    [
      "ou",
      "ra"
    ],
    [
      "or",
      "ities"
    ],
    [
      "oc",
      "k"
    ],
    [
      "ren",
      "ce"
    ],
    [
      "im",
      "es"
    ],
    [
      "ent",
      "ial"
    ],
    [
      " child",
      "ren"
    ],
    [
      " R",
      "e"
    ],
    [
      "b",
      "y"
    ],
    [
      " for",
      "m"
    ],
    [
      " Comm",
      "unity"
    ],
    [
      " se",
      "cond"
    ],
    [
      " m",
      "en"
    ],
    [
      " diffe",
      "rent"
    ],
    [
      " somet",
      "hing"
    ],
    [
      "r",
      "on"
    ],
    [
      " d",
      "ist"
    ],
    [
      "I",
      "f"
    ],
    [
      "e",
      "red"
    ],
    [
      " ra",
      "pporteur"
    ],
    [
      "c",
      "k"
    ],
    [
      " fe",
      "el"
    ],
    [
      "an",
      "n"
    ],
    [
      " l",
      "ater"
    ],
    [
      "id",
      "ed"
    ],
    [
      " ener",
      "gy"
    ],
    [
      " con",
      "v"
    ],
    [
      "ic",
      "ally"
    ],
    [
      "it",
      "ive"
    ],
    [
      " ex",
      "ample"
    ],
    [
      " re",
      "du"
    ],
    [
      " d",
      "ri"
    ],
    [
      "ul",
      "es"
    ],
    [
      " ex",
      "per"
    ],
    [
      "c",
      "ome"
    ],
    [
      "us",
      "es"
    ],
    [
      " p",
      "ay"
    ],
    [
      " A",
      "l"
    ],
    [
      "ab",
      "l"
    ],
    [
      " se",
      "em"
    ],
    [
      " suc",
      "cess"
    ],
    [
      "a",
      "red"
    ],
    [
      " w",
      "ife"
    ],
    [
      " m",
      "od"
    ],
    [
      " m",
      "ed"
    ],
    [
      "st",
      "and"
    ],
    [
      " we",
      "l"
    ],
    [
      "Â ",
      "Â "
    ],
    [
      " p",
      "res"
    ],
    [
      " pers",
      "on"
    ],
    [
      "a",
      "pe"
    ],
    [
      " includ",
      "ing"
    ],
    [
      "ab",
      "ility"
    ],
    [
      " H",
      "ouse"
    ],
    [
      " o",
      "pport"
    ],
    [
      "w",
      "h"
    ],
    [
      " T",
      "h"
    ],
    [
      " f",
      "ore"
    ],
    [
      " fa",
      "v"
    ],
    [
      " Un",
      "ited"
    ],
    [
      " sec",
      "urity"
    ],
    [
      "ent",
      "le"
    ],
    [
      " p",
      "ass"
    ],
    [
      " work",
      "ing"
    ],
    [
      "ro",
      "du"
    ],
    [
      " b",
      "re"
    ],
    [
      " g",
      "row"
    ],
    [
      " get",
      "s"
    ],
    [
      " bus",
      "iness"
    ],
    [
      "mer",
      "ic"
    ],
    [
      " c",
      "are"
    ],
    [
      " friend",
      "s"
    ],
    [
      "ion",
      "al"
    ],
    [
      " s",
      "chool"
    ],
    [
      " rep",
      "resent"
    ],
    [
      " f",
      "urther"
    ],
    [
      " leg",
      "al"
    ],
    [
      " g",
      "entle"
    ],
    [
      " te",
      "chn"
    ],
    [
      "in",
      "ed"
    ],
    [
      " consid",
      "er"
    ],
    [
      "ot",
      "i"
    ],
    [
      " ac",
      "cess"
    ],
    [
      "g",
      "ed"
    ],
    [
      "th",
      "ing"
    ],
    [
      " us",
      "ed"
    ],
    [
      " 2",
      "0"
    ],
    [
      "g",
      "es"
    ],
    [
      "i",
      "k"
    ],
    [
      " v",
      "al"
    ],
    [
      "Â Â ",
      " "
    ],
    [
      " vot",
      "e"
    ],
    [
      "at",
      "t"
    ],
    [
      " he",
      "alth"
    ],
    [
      "fic",
      "ult"
    ],
    [
      " A",
      "m"
    ],
    [
      "is",
      "ing"
    ],
    [
      " dif",
      "ficult"
    ],
    [
      " on",
      "ce"
    ],
    [
      " bet",
      "ter"
    ],
    [
      "reat",
      "y"
    ],
    [
      "ard",
      "s"
    ],
    [
      "ad",
      "ies"
    ],
    [
      " c",
      "ent"
    ],
    [
      "augh",
      "ter"
    ],
    [
      "ant",
      "s"
    ],
    [
      " en",
      "c"
    ],
    [
      " e",
      "qu"
    ],
    [
      " pos",
      "ition"
    ],
    [
      " s",
      "ol"
    ],
    [
      "itt",
      "le"
    ],
    [
      " re",
      "v"
    ],
    [
      " o",
      "per"
    ],
    [
      " iss",
      "ues"
    ],
    [
      " â",
      ""
    ],
    [
      "in",
      "a"
    ],
    [
      " ind",
      "ust"
    ],
    [
      "i",
      "x"
    ],
    [
      " requ",
      "ire"
    ],
    [
      " particular",
      "ly"
    ],
    [
      " a",
      "round"
    ],
    [
      " t",
      "ries"
    ],
    [
      " whe",
      "ther"
    ],
    [
      "t",
      "ic"
    ],
    [
      " eff",
      "ort"
    ],
    [
      " s",
      "on"
    ],
    [
      " protect",
      "ion"
    ],
    [
      " col",
      "le"
    ],
    [
      "sel",
      "ves"
    ],
    [
      "at",
      "ch"
    ],
    [
      "t",
      "il"
    ],
    [
      "p",
      "le"
    ],
    [
      "as",
      "es"
    ],
    [
      " c",
      "ost"
    ],
    [
      " necess",
      "ary"
    ],
    [
      " pow",
      "er"
    ],
    [
      " gentle",
      "men"
    ],
    [
      " mak",
      "es"
    ],
    [
      "al",
      "e"
    ],
    [
      "w",
      "ays"
    ],
    [
      " e",
      "lect"
    ],
    [
      " neg",
      "oti"
    ],
    [
      " th",
      "ings"
    ],
    [
      " acc",
      "ount"
    ],
    [
      " so",
      "on"
    ],
    [
      " 19",
      "9"
    ],
    [
      "e",
      "ad"
    ],
    [
      " c",
      "he"
    ],
    [
      " ch",
      "ange"
    ],
    [
      " wor",
      "d"
    ],
    [
      " A",
      "meric"
    ],
    [
      " m",
      "et"
    ],
    [
      " st",
      "ory"
    ],
    [
      "u",
      "p"
    ],
    [
      " b",
      "oy"
    ],
    [
      " est",
      "abl"
    ],
    [
      "g",
      "u"
    ],
    [
      " f",
      "ound"
    ],
    [
      " l",
      "arge"
    ],
    [
      " ne",
      "ver"
    ],
    [
      " ad",
      "m"
    ],
    [
      " d",
      "one"
    ],
    [
      "n",
      "a"
    ],
    [
      "g",
      "ress"
    ],
    [
      " p",
      "ract"
    ],
    [
      " de",
      "p"
    ],
    [
      "li",
      "ght"
    ],
    [
      " cont",
      "rol"
    ],
    [
      "l",
      "us"
    ],
    [
      " str",
      "ate"
    ],
    [
      " cons",
      "um"
    ],
    [
      " ro",
      "le"
    ],
    [
      " pre",
      "p"
    ],
    [
      " loc",
      "al"
    ],
    [
      " need",
      "s"
    ],
    [
      " le",
      "ave"
    ],
    [
      " n",
      "ame"
    ],
    [
      " ",
      "ide"
    ],
    [
      "r",
      "ation"
    ],
    [
      " m",
      "ur"
    ],
    [
      " produ",
      "ct"
    ],
    [
      " s",
      "ing"
    ],
    [
      " w",
      "ar"
    ],
    [
      "end",
      "s"
    ],
    [
      "ie",
      "ld"
    ],
    [
      " k",
      "eep"
    ],
    [
      " f",
      "ree"
    ],
    [
      " ",
      ":"
    ],
    [
      " direct",
      "ive"
    ],
    [
      "sib",
      "ility"
    ],
    [
      " to",
      "wn"
    ],
    [
      "a",
      "z"
    ],
    [
      " are",
      "as"
    ],
    [
      " re",
      "ce"
    ],
    [
      "ad",
      "am"
    ],
    [
      " dec",
      "ision"
    ],
    [
      " ser",
      "ious"
    ],
    [
      " spe",
      "ak"
    ],
    [
      "am",
      "ed"
    ],
    [
      "im",
      "s"
    ],
    [
      " who",
      "le"
    ],
    [
      " serv",
      "ices"
    ],
    [
      " mak",
      "ing"
    ],
    [
      "s",
      "ide"
    ],
    [
      " contin",
      "ue"
    ],
    [
      "e",
      "y"
    ],
    [
      "anc",
      "es"
    ],
    [
      " fa",
      "il"
    ],
    [
      "t",
      "en"
    ],
    [
      " wom",
      "an"
    ],
    [
      " cr",
      "it"
    ],
    [
      " v",
      "i"
    ],
    [
      "F",
      "or"
    ],
    [
      "d",
      "en"
    ],
    [
      " c",
      "ap"
    ],
    [
      "st",
      "er"
    ],
    [
      " tra",
      "in"
    ],
    [
      " becom",
      "es"
    ],
    [
      " un",
      "til"
    ],
    [
      " P",
      "ro"
    ],
    [
      " br",
      "ing"
    ],
    [
      " v",
      "ar"
    ],
    [
      " real",
      "iz"
    ],
    [
      " m",
      "ove"
    ],
    [
      " b",
      "est"
    ],
    [
      " f",
      "ac"
    ],
    [
      "A",
      "n"
    ],
    [
      "li",
      "g"
    ],
    [
      " d",
      "aughter"
    ],
    [
      "W",
      "ith"
    ],
    [
      " spec",
      "ific"
    ],
    [
      " reas",
      "on"
    ],
    [
      "th",
      "ough"
    ],
    [
      " tak",
      "ing"
    ],
    [
      " l",
      "ittle"
    ],
    [
      " st",
      "ep"
    ],
    [
      " pro",
      "ced"
    ],
    [
      " g",
      "ra"
    ],
    [
      "our",
      "ces"
    ],
    [
      " disc",
      "over"
    ],
    [
      " prom",
      "ot"
    ],
    [
      "is",
      "hed"
    ],
    [
      " su",
      "pp"
    ],
    [
      " a",
      "id"
    ],
    [
      " to",
      "wards"
    ],
    [
      " kill",
      "ed"
    ],
    [
      "if",
      "ied"
    ],
    [
      " begin",
      "s"
    ],
    [
      " l",
      "ess"
    ],
    [
      "id",
      "ency"
    ],
    [
      " ch",
      "ar"
    ],
    [
      " d",
      "est"
    ],
    [
      "ap",
      "s"
    ],
    [
      " se",
      "ctor"
    ],
    [
      " me",
      "an"
    ],
    [
      " pro",
      "ject"
    ],
    [
      " off",
      "ic"
    ],
    [
      "t",
      "on"
    ],
    [
      " op",
      "in"
    ],
    [
      "ar",
      "ing"
    ],
    [
      " le",
      "arn"
    ],
    [
      " G",
      "roup"
    ],
    [
      "end",
      "ing"
    ],
    [
      " l",
      "adies"
    ],
    [
      " T",
      "reaty"
    ],
    [
      "t",
      "al"
    ],
    [
      "in",
      "s"
    ],
    [
      "is",
      "ions"
    ],
    [
      "i",
      "er"
    ],
    [
      "air",
      "s"
    ],
    [
      " L",
      "e"
    ],
    [
      " as",
      "k"
    ],
    [
      " ch",
      "ang"
    ],
    [
      " al",
      "ways"
    ],
    [
      " al",
      "ong"
    ],
    [
      " cont",
      "rib"
    ],
    [
      " res",
      "olution"
    ],
    [
      " b",
      "ene"
    ],
    [
      " t",
      "ax"
    ],
    [
      " term",
      "s"
    ],
    [
      " sub",
      "ject"
    ],
    [
      "uc",
      "k"
    ],
    [
      " bre",
      "ak"
    ],
    [
      "il",
      "it"
    ],
    [
      " r",
      "ules"
    ],
    [
      " ev",
      "ent"
    ],
    [
      " gover",
      "nment"
    ],
    [
      "c",
      "om"
    ],
    [
      "ame",
      "work"
    ],
    [
      " bu",
      "ild"
    ],
    [
      " ",
      "5"
    ],
    [
      "g",
      "er"
    ],
    [
      " init",
      "i"
    ],
    [
      " pro",
      "gress"
    ],
    [
      " than",
      "k"
    ],
    [
      " ",
      "ur"
    ],
    [
      "ult",
      "ural"
    ],
    [
      " re",
      "se"
    ],
    [
      " int",
      "rodu"
    ],
    [
      " n",
      "at"
    ],
    [
      " bro",
      "ther"
    ],
    [
      " bas",
      "is"
    ],
    [
      " c",
      "reat"
    ],
    [
      " beh",
      "alf"
    ],
    [
      "oh",
      "n"
    ],
    [
      " w",
      "ish"
    ],
    [
      " dem",
      "and"
    ],
    [
      " d",
      "r"
    ],
    [
      " amend",
      "ments"
    ],
    [
      "ab",
      "ly"
    ],
    [
      " e",
      "l"
    ],
    [
      " tr",
      "ade"
    ],
    [
      "er",
      "v"
    ],
    [
      "i",
      "ble"
    ],
    [
      " vi",
      "ol"
    ],
    [
      "le",
      "g"
    ],
    [
      "e",
      "ed"
    ],
    [
      "og",
      "n"
    ],
    [
      "ic",
      "s"
    ],
    [
      " sh",
      "ort"
    ],
    [
      "r",
      "ist"
    ],
    [
      "a",
      "i"
    ],
    [
      " re",
      "form"
    ],
    [
      "e",
      "ah"
    ],
    [
      " effect",
      "ive"
    ],
    [
      " su",
      "ff"
    ],
    [
      "p",
      "s"
    ],
    [
      "pe",
      "cial"
    ],
    [
      " ro",
      "om"
    ],
    [
      " happ",
      "en"
    ],
    [
      "ter",
      "s"
    ],
    [
      "if",
      "y"
    ],
    [
      "r",
      "al"
    ],
    [
      " le",
      "ft"
    ],
    [
      "i",
      "ety"
    ],
    [
      "in",
      "ation"
    ],
    [
      " cl",
      "ose"
    ],
    [
      " under",
      "stand"
    ],
    [
      " propos",
      "als"
    ],
    [
      "i",
      "ence"
    ],
    [
      "\\",
      "/"
    ],
    [
      "ort",
      "h"
    ],
    [
      " se",
      "ver"
    ],
    [
      "Wh",
      "at"
    ],
    [
      " ",
      "4"
    ],
    [
      " dec",
      "ides"
    ],
    [
      " ",
      "ed"
    ],
    [
      " fin",
      "ally"
    ],
    [
      "er",
      "ing"
    ],
    [
      " pro",
      "f"
    ],
    [
      "out",
      "h"
    ],
    [
      "ress",
      "ed"
    ],
    [
      " p",
      "o"
    ],
    [
      " M",
      "embers"
    ],
    [
      " o",
      "cc"
    ],
    [
      "is",
      "is"
    ],
    [
      "Wh",
      "ile"
    ],
    [
      " p",
      "ar"
    ],
    [
      "e",
      "k"
    ],
    [
      " a",
      "ir"
    ],
    [
      " leav",
      "es"
    ],
    [
      " appro",
      "ach"
    ],
    [
      " s",
      "w"
    ],
    [
      "fe",
      "rence"
    ],
    [
      " p",
      "op"
    ],
    [
      " rec",
      "ogn"
    ],
    [
      " de",
      "ad"
    ],
    [
      " re",
      "ad"
    ],
    [
      " sever",
      "al"
    ],
    [
      " program",
      "me"
    ],
    [
      " cr",
      "isis"
    ],
    [
      " m",
      "embers"
    ],
    [
      "err",
      "or"
    ],
    [
      " d",
      "on"
    ],
    [
      "O",
      "ne"
    ],
    [
      " th",
      "ough"
    ],
    [
      " fav",
      "our"
    ],
    [
      " act",
      "iv"
    ],
    [
      " discus",
      "s"
    ],
    [
      " mon",
      "th"
    ],
    [
      " adop",
      "ted"
    ],
    [
      "on",
      "t"
    ],
    [
      "ure",
      "d"
    ],
    [
      " t",
      "ri"
    ],
    [
      "as",
      "ing"
    ],
    [
      "wh",
      "ile"
    ],
    [
      " k",
      "ind"
    ],
    [
      "se",
      "qu"
    ],
    [
      "m",
      "y"
    ],
    [
      " concern",
      "ed"
    ],
    [
      " r",
      "ather"
    ],
    [
      " s",
      "ays"
    ],
    [
      "it",
      "ing"
    ],
    [
      "t",
      "he"
    ],
    [
      " st",
      "op"
    ],
    [
      " ",
      "Z"
    ],
    [
      "reed",
      "om"
    ],
    [
      " ex",
      "ist"
    ],
    [
      "p",
      "ri"
    ],
    [
      "l",
      "a"
    ],
    [
      " want",
      "s"
    ],
    [
      " str",
      "ong"
    ],
    [
      "en",
      "se"
    ],
    [
      " comm",
      "un"
    ],
    [
      " m",
      "illion"
    ],
    [
      "us",
      "ed"
    ],
    [
      "or",
      "n"
    ],
    [
      " an",
      "n"
    ],
    [
      "im",
      "ate"
    ],
    [
      " for",
      "ward"
    ],
    [
      " m",
      "ention"
    ],
    [
      " l",
      "ab"
    ],
    [
      " f",
      "le"
    ],
    [
      " S",
      "p"
    ],
    [
      " prov",
      "ide"
    ],
    [
      "S",
      "o"
    ],
    [
      " act",
      "ually"
    ],
    [
      " princ",
      "ip"
    ],
    [
      "h",
      "a"
    ],
    [
      " o",
      "pp"
    ],
    [
      " th",
      "ird"
    ],
    [
      " legisl",
      "ation"
    ],
    [
      "enc",
      "es"
    ],
    [
      " pe",
      "ace"
    ],
    [
      "at",
      "ives"
    ],
    [
      " r",
      "is"
    ],
    [
      "A",
      "l"
    ],
    [
      " opin",
      "ion"
    ],
    [
      " fr",
      "amework"
    ],
    [
      " fin",
      "al"
    ],
    [
      "le",
      "y"
    ],
    [
      " I",
      "s"
    ],
    [
      " R",
      "us"
    ],
    [
      " trans",
      "port"
    ],
    [
      " ful",
      "l"
    ],
    [
      " opport",
      "unity"
    ],
    [
      "pecial",
      "ly"
    ],
    [
      " St",
      "ate"
    ],
    [
      "ult",
      "ure"
    ],
    [
      "f",
      "ort"
    ],
    [
      "ce",
      "ed"
    ],
    [
      "ish",
      "ing"
    ],
    [
      "f",
      "ety"
    ],
    [
      " w",
      "r"
    ],
    [
      "s",
      "p"
    ],
    [
      " p",
      "le"
    ],
    [
      " f",
      "ood"
    ],
    [
      " g",
      "ives"
    ],
    [
      "e",
      "x"
    ],
    [
      " rem",
      "ain"
    ],
    [
      "t",
      "o"
    ],
    [
      "rat",
      "ic"
    ],
    [
      "over",
      "nment"
    ],
    [
      " ne",
      "ar"
    ],
    [
      "f",
      "riend"
    ],
    [
      " p",
      "ast"
    ],
    [
      " achie",
      "ve"
    ],
    [
      " other",
      "s"
    ],
    [
      " d",
      "i"
    ],
    [
      " as",
      "ks"
    ],
    [
      "id",
      "ing"
    ],
    [
      " invol",
      "ved"
    ],
    [
      " th",
      "reat"
    ],
    [
      "T",
      "o"
    ],
    [
      "os",
      "s"
    ],
    [
      " relations",
      "hip"
    ],
    [
      " n",
      "amed"
    ],
    [
      " impro",
      "ve"
    ],
    [
      " es",
      "pecially"
    ],
    [
      "ar",
      "ant"
    ],
    [
      " comm",
      "it"
    ],
    [
      " re",
      "le"
    ],
    [
      " f",
      "our"
    ],
    [
      " l",
      "and"
    ],
    [
      "pp",
      "ed"
    ],
    [
      " man",
      "age"
    ],
    [
      "en",
      "n"
    ],
    [
      " M",
      "in"
    ],
    [
      " instit",
      "utions"
    ],
    [
      " it",
      "self"
    ],
    [
      "id",
      "ence"
    ],
    [
      " call",
      "ed"
    ],
    [
      "00",
      "0"
    ],
    [
      "re",
      "am"
    ],
    [
      " m",
      "or"
    ],
    [
      " wel",
      "come"
    ],
    [
      " var",
      "ious"
    ],
    [
      " v",
      "ill"
    ],
    [
      "en",
      "sion"
    ],
    [
      "ke",
      "y"
    ],
    [
      " S",
      "e"
    ],
    [
      "i",
      "od"
    ],
    [
      " ass",
      "ist"
    ],
    [
      " j",
      "oin"
    ],
    [
      " le",
      "ast"
    ],
    [
      " gener",
      "al"
    ],
    [
      "ra",
      "cy"
    ],
    [
      " su",
      "m"
    ],
    [
      "ob",
      "al"
    ],
    [
      "n",
      "ers"
    ],
    [
      " l",
      "ive"
    ],
    [
      " f",
      "reedom"
    ],
    [
      " ",
      "ess"
    ],
    [
      " N",
      "ew"
    ],
    [
      "u",
      "se"
    ],
    [
      " qu",
      "ite"
    ],
    [
      " m",
      "ot"
    ],
    [
      "ou",
      "ght"
    ],
    [
      " s",
      "ent"
    ],
    [
      "ri",
      "e"
    ],
    [
      "b",
      "and"
    ],
    [
      " t",
      "reat"
    ],
    [
      " follow",
      "ing"
    ],
    [
      " T",
      "ur"
    ],
    [
      "i",
      "res"
    ],
    [
      "p",
      "ite"
    ],
    [
      "he",
      "re"
    ],
    [
      " b",
      "ody"
    ],
    [
      " att",
      "ention"
    ],
    [
      "ament",
      "al"
    ],
    [
      "el",
      "s"
    ],
    [
      " m",
      "ight"
    ],
    [
      "iz",
      "ed"
    ],
    [
      "ur",
      "y"
    ],
    [
      " m",
      "o"
    ],
    [
      " en",
      "ough"
    ],
    [
      "m",
      "es"
    ],
    [
      " G",
      "erm"
    ],
    [
      " t",
      "error"
    ],
    [
      "it",
      "her"
    ],
    [
      "i",
      "um"
    ],
    [
      "iv",
      "il"
    ],
    [
      " I",
      "nd"
    ],
    [
      " ",
      "ident"
    ],
    [
      " m",
      "om"
    ],
    [
      " ag",
      "ric"
    ],
    [
      " beh",
      "ind"
    ],
    [
      "all",
      "en"
    ],
    [
      " auth",
      "orities"
    ],
    [
      " gu",
      "arant"
    ],
    [
      " y",
      "et"
    ],
    [
      " meet",
      "s"
    ],
    [
      " bene",
      "f"
    ],
    [
      " add",
      "ition"
    ],
    [
      " bas",
      "ed"
    ],
    [
      "l",
      "er"
    ],
    [
      "st",
      "it"
    ],
    [
      " com",
      "b"
    ],
    [
      " return",
      "s"
    ],
    [
      "s",
      "w"
    ],
    [
      " res",
      "ources"
    ],
    [
      "itt",
      "ed"
    ],
    [
      " for",
      "ce"
    ],
    [
      " esc",
      "ape"
    ],
    [
      " h",
      "old"
    ],
    [
      "a",
      "id"
    ],
    [
      " se",
      "en"
    ],
    [
      " l",
      "im"
    ],
    [
      " cond",
      "itions"
    ],
    [
      " rese",
      "arch"
    ],
    [
      " prev",
      "ent"
    ],
    [
      " maj",
      "or"
    ],
    [
      " l",
      "ives"
    ],
    [
      " meet",
      "ing"
    ],
    [
      " d",
      "ue"
    ],
    [
      "an",
      "e"
    ],
    [
      "u",
      "ge"
    ],
    [
      " fa",
      "ce"
    ],
    [
      "ir",
      "m"
    ],
    [
      "un",
      "g"
    ],
    [
      " am",
      "ong"
    ],
    [
      " ex",
      "pect"
    ],
    [
      " E",
      "n"
    ],
    [
      "end",
      "ed"
    ],
    [
      "at",
      "s"
    ],
    [
      "i",
      "ans"
    ],
    [
      " J",
      "ohn"
    ],
    [
      " inte",
      "gr"
    ],
    [
      "it",
      "or"
    ],
    [
      " try",
      "ing"
    ],
    [
      " incre",
      "ase"
    ],
    [
      " ext",
      "re"
    ],
    [
      " them",
      "selves"
    ],
    [
      " S",
      "c"
    ],
    [
      "ean",
      "while"
    ],
    [
      " part",
      "y"
    ],
    [
      "A",
      "nd"
    ],
    [
      " propos",
      "ed"
    ],
    [
      " o",
      "ri"
    ],
    [
      "i",
      "ation"
    ],
    [
      "u",
      "le"
    ],
    [
      " tr",
      "ue"
    ],
    [
      "M",
      "eanwhile"
    ],
    [
      " ab",
      "s"
    ],
    [
      "ra",
      "ph"
    ],
    [
      " sh",
      "all"
    ],
    [
      " qu",
      "ick"
    ],
    [
      " w",
      "ater"
    ],
    [
      " princip",
      "le"
    ],
    [
      " fall",
      "s"
    ],
    [
      "ren",
      "g"
    ],
    [
      " p",
      "ress"
    ],
    [
      " comple",
      "te"
    ],
    [
      "us",
      "band"
    ],
    [
      " A",
      "f"
    ],
    [
      " clear",
      "ly"
    ],
    [
      " ch",
      "allen"
    ],
    [
      " sa",
      "fety"
    ],
    [
      " do",
      "ing"
    ],
    [
      " l",
      "ist"
    ],
    [
      " se",
      "x"
    ],
    [
      " employ",
      "ment"
    ],
    [
      " w",
      "rit"
    ],
    [
      " pro",
      "per"
    ],
    [
      " effort",
      "s"
    ],
    [
      "pl",
      "es"
    ],
    [
      " P",
      "ol"
    ],
    [
      "iv",
      "id"
    ],
    [
      " per",
      "form"
    ],
    [
      "li",
      "es"
    ],
    [
      " soc",
      "iety"
    ],
    [
      "m",
      "ost"
    ],
    [
      " indust",
      "ry"
    ],
    [
      " se",
      "es"
    ],
    [
      "c",
      "hes"
    ],
    [
      " st",
      "reng"
    ],
    [
      " ess",
      "ential"
    ],
    [
      "at",
      "a"
    ],
    [
      "c",
      "ing"
    ],
    [
      "re",
      "en"
    ],
    [
      " gover",
      "n"
    ],
    [
      "ic",
      "ient"
    ],
    [
      " respon",
      "sibility"
    ],
    [
      "ire",
      "d"
    ],
    [
      " polic",
      "ies"
    ],
    [
      " sh",
      "oot"
    ],
    [
      " gl",
      "obal"
    ],
    [
      " st",
      "e"
    ],
    [
      "R",
      "CB"
    ],
    [
      " word",
      "s"
    ],
    [
      " cl",
      "a"
    ],
    [
      " th",
      "ing"
    ],
    [
      "ar",
      "ity"
    ],
    [
      " p",
      "at"
    ],
    [
      "ful",
      "ly"
    ],
    [
      " c",
      "amp"
    ],
    [
      " reg",
      "ul"
    ],
    [
      " import",
      "ance"
    ],
    [
      " h",
      "usband"
    ],
    [
      "os",
      "ed"
    ],
    [
      " f",
      "ield"
    ],
    [
      " a",
      "im"
    ],
    [
      " per",
      "iod"
    ],
    [
      "m",
      "b"
    ],
    [
      " l",
      "ot"
    ],
    [
      " en",
      "g"
    ],
    [
      " pri",
      "v"
    ],
    [
      " k",
      "id"
    ],
    [
      " acc",
      "ident"
    ],
    [
      " point",
      "s"
    ],
    [
      "s",
      "h"
    ],
    [
      " v",
      "ict"
    ],
    [
      "est",
      "s"
    ],
    [
      " show",
      "s"
    ],
    [
      " up",
      "on"
    ],
    [
      "The",
      "se"
    ],
    [
      " sing",
      "le"
    ],
    [
      " every",
      "one"
    ],
    [
      " w",
      "a"
    ],
    [
      " vot",
      "ed"
    ],
    [
      " b",
      "al"
    ],
    [
      "am",
      "es"
    ],
    [
      " su",
      "gg"
    ],
    [
      " tra",
      "vel"
    ],
    [
      " strate",
      "gy"
    ],
    [
      " A",
      "g"
    ],
    [
      " Pres",
      "idency"
    ],
    [
      "w",
      "ay"
    ],
    [
      " great",
      "er"
    ],
    [
      " p",
      "arent"
    ],
    [
      " aff",
      "ect"
    ],
    [
      " c",
      "ity"
    ],
    [
      " ag",
      "o"
    ],
    [
      " su",
      "re"
    ],
    [
      "ag",
      "ed"
    ],
    [
      " te",
      "xt"
    ],
    [
      " d",
      "ou"
    ],
    [
      " l",
      "iving"
    ],
    [
      " end",
      "s"
    ],
    [
      "i",
      "et"
    ],
    [
      "ed",
      "i"
    ],
    [
      " ent",
      "ire"
    ],
    [
      " appro",
      "pri"
    ],
    [
      " g",
      "un"
    ],
    [
      " environment",
      "al"
    ],
    [
      " ed",
      "uc"
    ],
    [
      " us",
      "ing"
    ],
    [
      " b",
      "ig"
    ],
    [
      "os",
      "p"
    ],
    [
      "er",
      "t"
    ],
    [
      " ind",
      "ivid"
    ],
    [
      " ro",
      "ad"
    ],
    [
      " d",
      "oc"
    ],
    [
      " negoti",
      "ations"
    ],
    [
      "c",
      "o"
    ],
    [
      " product",
      "s"
    ],
    [
      " extre",
      "me"
    ],
    [
      "ru",
      "g"
    ],
    [
      " f",
      "arm"
    ],
    [
      " of",
      "ten"
    ],
    [
      " sign",
      "ific"
    ],
    [
      " ori",
      "gin"
    ],
    [
      "iv",
      "ed"
    ],
    [
      " seem",
      "s"
    ],
    [
      " ch",
      "o"
    ],
    [
      "re",
      "et"
    ],
    [
      " ex",
      "c"
    ],
    [
      " n",
      "on"
    ],
    [
      " s",
      "k"
    ],
    [
      " inst",
      "ru"
    ],
    [
      " h",
      "ard"
    ],
    [
      "l",
      "in"
    ],
    [
      "re",
      "es"
    ],
    [
      " reve",
      "al"
    ],
    [
      " b",
      "ar"
    ],
    [
      " f",
      "un"
    ],
    [
      " sec",
      "ret"
    ],
    [
      "ang",
      "er"
    ],
    [
      "s",
      "pect"
    ],
    [
      "F",
      "in"
    ],
    [
      " pr",
      "ison"
    ],
    [
      " e",
      "as"
    ],
    [
      "st",
      "ain"
    ],
    [
      "o",
      "e"
    ],
    [
      " fund",
      "amental"
    ],
    [
      " te",
      "am"
    ],
    [
      "v",
      "ention"
    ],
    [
      " B",
      "ar"
    ],
    [
      " s",
      "av"
    ],
    [
      "as",
      "ter"
    ],
    [
      " c",
      "e"
    ],
    [
      " out",
      "side"
    ],
    [
      " reg",
      "ulation"
    ],
    [
      " w",
      "al"
    ],
    [
      " not",
      "hing"
    ],
    [
      "b",
      "on"
    ],
    [
      "pt",
      "ion"
    ],
    [
      "ir",
      "c"
    ],
    [
      "ious",
      "ly"
    ],
    [
      " discus",
      "sion"
    ],
    [
      " st",
      "at"
    ],
    [
      " pos",
      "itive"
    ],
    [
      " colle",
      "ag"
    ],
    [
      " month",
      "s"
    ],
    [
      " c",
      "ivil"
    ],
    [
      " m",
      "ov"
    ],
    [
      " spe",
      "cial"
    ],
    [
      " his",
      "t"
    ],
    [
      " work",
      "ers"
    ],
    [
      "om",
      "b"
    ],
    [
      " say",
      "ing"
    ],
    [
      " C",
      "ar"
    ],
    [
      " g",
      "ang"
    ],
    [
      " d",
      "ays"
    ],
    [
      "p",
      "ly"
    ],
    [
      " call",
      "s"
    ],
    [
      " interest",
      "s"
    ],
    [
      " ",
      "6"
    ],
    [
      " invest",
      "ig"
    ],
    [
      " st",
      "ruct"
    ],
    [
      "ap",
      "er"
    ],
    [
      "ific",
      "ation"
    ],
    [
      " econom",
      "y"
    ],
    [
      " ac",
      "ross"
    ],
    [
      " doc",
      "u"
    ],
    [
      " L",
      "is"
    ],
    [
      " c",
      "ut"
    ],
    [
      "r",
      "ate"
    ],
    [
      " adop",
      "t"
    ],
    [
      " enc",
      "oura"
    ],
    [
      " arri",
      "ves"
    ],
    [
      " de",
      "v"
    ],
    [
      " sh",
      "ip"
    ],
    [
      " comp",
      "an"
    ],
    [
      " ca",
      "pt"
    ],
    [
      " for",
      "mer"
    ],
    [
      " g",
      "ot"
    ],
    [
      " attempt",
      "s"
    ],
    [
      " B",
      "l"
    ],
    [
      " incre",
      "asing"
    ],
    [
      " en",
      "l"
    ],
    [
      "s",
      "ia"
    ],
    [
      "t",
      "hen"
    ],
    [
      "at",
      "or"
    ],
    [
      " s",
      "ister"
    ],
    [
      "p",
      "or"
    ],
    [
      " de",
      "li"
    ],
    [
      "on",
      "y"
    ],
    [
      "m",
      "it"
    ],
    [
      "a",
      "ff"
    ],
    [
      " an",
      "sw"
    ],
    [
      "y",
      "ing"
    ],
    [
      " s",
      "l"
    ],
    [
      " compet",
      "ition"
    ],
    [
      "e",
      "es"
    ],
    [
      " mom",
      "ent"
    ],
    [
      " c",
      "ou"
    ],
    [
      " ob",
      "s"
    ],
    [
      " av",
      "ail"
    ],
    [
      " h",
      "on"
    ],
    [
      "y",
      "l"
    ],
    [
      " st",
      "ates"
    ],
    [
      " intern",
      "al"
    ],
    [
      " B",
      "r"
    ],
    [
      "Fin",
      "ally"
    ],
    [
      "og",
      "ue"
    ],
    [
      " m",
      "ind"
    ],
    [
      " ",
      "ve"
    ],
    [
      "art",
      "ment"
    ],
    [
      " B",
      "rit"
    ],
    [
      "igh",
      "b"
    ],
    [
      " parent",
      "s"
    ],
    [
      "Y",
      "ou"
    ],
    [
      " an",
      "im"
    ],
    [
      "v",
      "al"
    ],
    [
      "fort",
      "un"
    ],
    [
      "ot",
      "t"
    ],
    [
      " who",
      "se"
    ],
    [
      " m",
      "ilit"
    ],
    [
      " H",
      "ar"
    ],
    [
      " tr",
      "ad"
    ],
    [
      " inst",
      "ead"
    ],
    [
      " dest",
      "ro"
    ],
    [
      " in",
      "n"
    ],
    [
      " dra",
      "w"
    ],
    [
      " reg",
      "ions"
    ],
    [
      " event",
      "ually"
    ],
    [
      " every",
      "thing"
    ],
    [
      " turn",
      "s"
    ],
    [
      " l",
      "ow"
    ],
    [
      " techn",
      "olog"
    ],
    [
      " quick",
      "ly"
    ],
    [
      " am",
      "b"
    ],
    [
      " wh",
      "om"
    ],
    [
      " d",
      "rug"
    ],
    [
      " sim",
      "ply"
    ],
    [
      " acc",
      "ord"
    ],
    [
      " part",
      "ners"
    ],
    [
      "o",
      "o"
    ],
    [
      "U",
      "n"
    ],
    [
      "id",
      "d"
    ],
    [
      "er",
      "ry"
    ],
    [
      " t",
      "y"
    ],
    [
      " f",
      "oc"
    ],
    [
      " ide",
      "a"
    ],
    [
      "i",
      "or"
    ],
    [
      "e",
      "xt"
    ],
    [
      " as",
      "pect"
    ],
    [
      "a",
      "ren"
    ],
    [
      " result",
      "s"
    ],
    [
      " pur",
      "s"
    ],
    [
      " app",
      "lic"
    ],
    [
      "H",
      "is"
    ],
    [
      " partic",
      "ip"
    ],
    [
      "in",
      "ist"
    ],
    [
      " start",
      "s"
    ],
    [
      " democ",
      "racy"
    ],
    [
      " b",
      "an"
    ],
    [
      " t",
      "ar"
    ],
    [
      " run",
      "s"
    ],
    [
      " f",
      "ell"
    ],
    [
      " c",
      "irc"
    ],
    [
      " Americ",
      "an"
    ],
    [
      " implement",
      "ation"
    ],
    [
      " Ch",
      "rist"
    ],
    [
      " l",
      "ack"
    ],
    [
      " democ",
      "ratic"
    ],
    [
      "L",
      "CB"
    ],
    [
      " t",
      "er"
    ],
    [
      " concern",
      "s"
    ],
    [
      " st",
      "ay"
    ],
    [
      " cre",
      "ate"
    ],
    [
      " reg",
      "ion"
    ],
    [
      " l",
      "ine"
    ],
    [
      "iz",
      "e"
    ],
    [
      "ic",
      "ation"
    ],
    [
      " s",
      "ide"
    ],
    [
      "ak",
      "ing"
    ],
    [
      " fund",
      "s"
    ],
    [
      " g",
      "round"
    ],
    [
      "il",
      "ities"
    ],
    [
      " he",
      "art"
    ],
    [
      "er",
      "al"
    ],
    [
      "g",
      "ing"
    ],
    [
      "ution",
      "al"
    ],
    [
      "p",
      "ose"
    ],
    [
      " quest",
      "ions"
    ],
    [
      " p",
      "ost"
    ],
    [
      "'",
      "re"
    ],
    [
      "ro",
      "wn"
    ],
    [
      " pl",
      "ans"
    ],
    [
      " imm",
      "edi"
    ],
    [
      "u",
      "ff"
    ],
    [
      "us",
      "h"
    ],
    [
      " dra",
      "ft"
    ],
    [
      " b",
      "ord"
    ],
    [
      " rec",
      "ent"
    ],
    [
      " qu",
      "ality"
    ],
    [
      " t",
      "imes"
    ],
    [
      "C",
      "h"
    ],
    [
      "f",
      "or"
    ],
    [
      " dem",
      "on"
    ],
    [
      " G",
      "e"
    ],
    [
      " sa",
      "fe"
    ],
    [
      " ful",
      "ly"
    ],
    [
      " grow",
      "th"
    ],
    [
      "tic",
      "le"
    ],
    [
      "om",
      "p"
    ],
    [
      " comm",
      "ittee"
    ],
    [
      " al",
      "though"
    ],
    [
      " f",
      "is"
    ],
    [
      " ne",
      "ighb"
    ],
    [
      " e",
      "le"
    ],
    [
      "h",
      "aps"
    ],
    [
      "d",
      "e"
    ],
    [
      " mov",
      "ie"
    ],
    [
      "ul",
      "ate"
    ],
    [
      " discover",
      "s"
    ],
    [
      " streng",
      "then"
    ],
    [
      "ut",
      "es"
    ],
    [
      " respon",
      "sible"
    ],
    [
      " long",
      "er"
    ],
    [
      " li",
      "ght"
    ],
    [
      " aw",
      "are"
    ],
    [
      " su",
      "per"
    ],
    [
      " c",
      "red"
    ],
    [
      " G",
      "overnment"
    ],
    [
      "itt",
      "ing"
    ],
    [
      "ul",
      "l"
    ],
    [
      "ant",
      "ly"
    ],
    [
      " ",
      "Q"
    ],
    [
      " get",
      "ting"
    ],
    [
      "i",
      "vers"
    ],
    [
      " trans",
      "p"
    ],
    [
      " g",
      "en"
    ],
    [
      " ent",
      "er"
    ],
    [
      " h",
      "arm"
    ],
    [
      "u",
      "ed"
    ],
    [
      "art",
      "h"
    ],
    [
      " leav",
      "ing"
    ],
    [
      "ep",
      "end"
    ],
    [
      " reve",
      "als"
    ],
    [
      " extreme",
      "ly"
    ],
    [
      " compan",
      "ies"
    ],
    [
      " re",
      "ach"
    ],
    [
      " stand",
      "ards"
    ],
    [
      " chang",
      "es"
    ],
    [
      "a",
      "ur"
    ],
    [
      "at",
      "ic"
    ],
    [
      " e",
      "ver"
    ],
    [
      " realiz",
      "es"
    ],
    [
      "at",
      "ory"
    ],
    [
      " imp",
      "act"
    ],
    [
      " exp",
      "ress"
    ],
    [
      " N",
      "o"
    ],
    [
      " j",
      "ud"
    ],
    [
      " proced",
      "ure"
    ],
    [
      "un",
      "t"
    ],
    [
      " em",
      "ph"
    ],
    [
      "an",
      "a"
    ],
    [
      " k",
      "ey"
    ],
    [
      " d",
      "ata"
    ],
    [
      " U",
      "S"
    ],
    [
      "n",
      "ect"
    ],
    [
      " char",
      "act"
    ],
    [
      " mur",
      "der"
    ],
    [
      " to",
      "p"
    ],
    [
      " ris",
      "k"
    ],
    [
      " res",
      "ol"
    ],
    [
      "lus",
      "ion"
    ],
    [
      " re",
      "ject"
    ],
    [
      "i",
      "ke"
    ],
    [
      " su",
      "stain"
    ],
    [
      "gr",
      "at"
    ],
    [
      " f",
      "ire"
    ],
    [
      " we",
      "ek"
    ],
    [
      "p",
      "ar"
    ],
    [
      "a",
      "pt"
    ],
    [
      " f",
      "ive"
    ],
    [
      " conf",
      "ron"
    ],
    [
      " Min",
      "ister"
    ],
    [
      "res",
      "sion"
    ],
    [
      "f",
      "er"
    ],
    [
      " ar",
      "rest"
    ],
    [
      " rec",
      "omm"
    ],
    [
      "o",
      "le"
    ],
    [
      " produ",
      "ction"
    ],
    [
      "o",
      "id"
    ],
    [
      "a",
      "pp"
    ],
    [
      " P",
      "r"
    ],
    [
      "ne",
      "y"
    ],
    [
      "c",
      "ise"
    ],
    [
      "us",
      "ing"
    ],
    [
      " con",
      "grat"
    ],
    [
      " maj",
      "ority"
    ],
    [
      " dec",
      "ide"
    ],
    [
      " Af",
      "ric"
    ],
    [
      " certain",
      "ly"
    ],
    [
      " sh",
      "are"
    ],
    [
      " avail",
      "able"
    ],
    [
      "s",
      "c"
    ],
    [
      "ar",
      "a"
    ],
    [
      " In",
      "tern"
    ],
    [
      " group",
      "s"
    ],
    [
      "s",
      "on"
    ],
    [
      " dec",
      "isions"
    ],
    [
      "un",
      "e"
    ],
    [
      " det",
      "erm"
    ],
    [
      "rou",
      "ght"
    ],
    [
      " d",
      "ial"
    ],
    [
      "el",
      "f"
    ],
    [
      "our",
      "t"
    ],
    [
      "M",
      "adam"
    ],
    [
      " h",
      "or"
    ],
    [
      " A",
      "ff"
    ],
    [
      " milit",
      "ary"
    ],
    [
      " requ",
      "est"
    ],
    [
      "ly",
      "ing"
    ],
    [
      " need",
      "ed"
    ],
    [
      " ",
      "7"
    ],
    [
      " p",
      "ot"
    ],
    [
      " EU",
      "R"
    ],
    [
      "ce",
      "ll"
    ],
    [
      " sur",
      "v"
    ],
    [
      " tal",
      "k"
    ],
    [
      " manage",
      "ment"
    ],
    [
      " s",
      "olution"
    ],
    [
      " cl",
      "ass"
    ],
    [
      " c",
      "at"
    ],
    [
      " or",
      "d"
    ],
    [
      " cr",
      "imin"
    ],
    [
      " sub",
      "st"
    ],
    [
      " Aff",
      "airs"
    ],
    [
      "or",
      "ld"
    ],
    [
      "b",
      "e"
    ],
    [
      " R",
      "om"
    ],
    [
      " cr",
      "ime"
    ],
    [
      " c",
      "ru"
    ],
    [
      " p",
      "arliament"
    ],
    [
      " w",
      "in"
    ],
    [
      " S",
      "w"
    ],
    [
      " dec",
      "l"
    ],
    [
      " mor",
      "ning"
    ],
    [
      " program",
      "mes"
    ],
    [
      " educ",
      "ation"
    ],
    [
      " vis",
      "it"
    ],
    [
      " I",
      "r"
    ],
    [
      "m",
      "a"
    ],
    [
      " ex",
      "am"
    ],
    [
      " 1",
      "0"
    ],
    [
      "o",
      "on"
    ],
    [
      " al",
      "most"
    ],
    [
      " object",
      "ives"
    ],
    [
      "ar",
      "ian"
    ],
    [
      " ass",
      "ess"
    ],
    [
      " const",
      "it"
    ],
    [
      " comp",
      "any"
    ],
    [
      "fortun",
      "ately"
    ],
    [
      "r",
      "ict"
    ],
    [
      "y",
      "a"
    ],
    [
      " ind",
      "eed"
    ],
    [
      "ud",
      "e"
    ],
    [
      "as",
      "k"
    ],
    [
      " sc",
      "ene"
    ],
    [
      "ac",
      "hed"
    ],
    [
      "D",
      "uring"
    ],
    [
      "pp",
      "ing"
    ],
    [
      " D",
      "r"
    ],
    [
      " h",
      "ot"
    ],
    [
      " h",
      "osp"
    ],
    [
      " con",
      "sequ"
    ],
    [
      "ar",
      "ly"
    ],
    [
      " am",
      "ount"
    ],
    [
      " emph",
      "as"
    ],
    [
      " b",
      "ad"
    ],
    [
      "ren",
      "ch"
    ],
    [
      " A",
      "d"
    ],
    [
      " job",
      "s"
    ],
    [
      "g",
      "o"
    ],
    [
      " mar",
      "ried"
    ],
    [
      " T",
      "r"
    ],
    [
      "b",
      "s"
    ],
    [
      " tar",
      "get"
    ],
    [
      " r",
      "ule"
    ],
    [
      "A",
      "ll"
    ],
    [
      " vill",
      "age"
    ],
    [
      " add",
      "ress"
    ],
    [
      " includ",
      "e"
    ],
    [
      " s",
      "old"
    ],
    [
      "ri",
      "age"
    ],
    [
      " te",
      "le"
    ],
    [
      " pl",
      "ac"
    ],
    [
      " agree",
      "ments"
    ],
    [
      "a",
      "ul"
    ],
    [
      " he",
      "ld"
    ],
    [
      " conf",
      "lic"
    ],
    [
      " bro",
      "ad"
    ],
    [
      "att",
      "le"
    ],
    [
      " c",
      "ases"
    ],
    [
      " C",
      "ourt"
    ],
    [
      " n",
      "et"
    ],
    [
      " appe",
      "ars"
    ],
    [
      " I",
      "tal"
    ],
    [
      "ac",
      "hes"
    ],
    [
      " sh",
      "ot"
    ],
    [
      " build",
      "ing"
    ],
    [
      " establ",
      "ish"
    ],
    [
      " m",
      "iss"
    ],
    [
      " Lis",
      "bon"
    ],
    [
      " look",
      "ing"
    ],
    [
      " prof",
      "ess"
    ],
    [
      " her",
      "self"
    ],
    [
      " as",
      "ked"
    ],
    [
      " cost",
      "s"
    ],
    [
      " cont",
      "ext"
    ],
    [
      "h",
      "od"
    ],
    [
      "ber",
      "t"
    ],
    [
      " activ",
      "ities"
    ],
    [
      " dou",
      "b"
    ],
    [
      "ist",
      "ic"
    ],
    [
      " m",
      "ess"
    ],
    [
      " al",
      "one"
    ],
    [
      " T",
      "om"
    ],
    [
      " p",
      "ack"
    ],
    [
      " cl",
      "os"
    ],
    [
      " H",
      "e"
    ],
    [
      " ",
      "ill"
    ],
    [
      " d",
      "anger"
    ],
    [
      "a",
      "ut"
    ],
    [
      " F",
      "und"
    ],
    [
      " ",
      "8"
    ],
    [
      " ev",
      "ents"
    ],
    [
      " M",
      "on"
    ],
    [
      "l",
      "o"
    ],
    [
      " J",
      "ack"
    ],
    [
      " do",
      "or"
    ],
    [
      "n",
      "y"
    ],
    [
      " S",
      "oc"
    ],
    [
      " l",
      "ost"
    ],
    [
      " b",
      "ur"
    ],
    [
      " h",
      "alf"
    ],
    [
      " conv",
      "in"
    ],
    [
      " writ",
      "ing"
    ],
    [
      " current",
      "ly"
    ],
    [
      " co",
      "ord"
    ],
    [
      " object",
      "ive"
    ],
    [
      " comp",
      "rom"
    ],
    [
      "at",
      "ors"
    ],
    [
      " kill",
      "s"
    ],
    [
      " for",
      "ces"
    ],
    [
      " demon",
      "st"
    ],
    [
      " c",
      "ross"
    ],
    [
      " P",
      "et"
    ],
    [
      " dial",
      "ogue"
    ],
    [
      " report",
      "s"
    ],
    [
      " system",
      "s"
    ],
    [
      " th",
      "ought"
    ],
    [
      " k",
      "n"
    ],
    [
      " develop",
      "ing"
    ],
    [
      " b",
      "rought"
    ],
    [
      " to",
      "ld"
    ],
    [
      "o",
      "ks"
    ],
    [
      " com",
      "ing"
    ],
    [
      " ref",
      "uses"
    ],
    [
      " car",
      "ry"
    ],
    [
      " ",
      "9"
    ],
    [
      "m",
      "ber"
    ],
    [
      "ff",
      "ice"
    ],
    [
      "end",
      "a"
    ],
    [
      " f",
      "ig"
    ],
    [
      " e",
      "uro"
    ],
    [
      " s",
      "elf"
    ],
    [
      " adm",
      "inist"
    ],
    [
      " serv",
      "ice"
    ],
    [
      " ab",
      "ove"
    ],
    [
      "2",
      "0"
    ],
    [
      " bl",
      "ack"
    ],
    [
      "l",
      "t"
    ],
    [
      " ar",
      "t"
    ],
    [
      "led",
      "ge"
    ],
    [
      "oun",
      "ter"
    ],
    [
      " amend",
      "ment"
    ],
    [
      "e",
      "ch"
    ],
    [
      " W",
      "h"
    ],
    [
      " inf",
      "l"
    ],
    [
      " reg",
      "ional"
    ],
    [
      " appropri",
      "ate"
    ],
    [
      "h",
      "ood"
    ],
    [
      " st",
      "ri"
    ],
    [
      "uc",
      "lear"
    ],
    [
      "F",
      "irst"
    ],
    [
      " mention",
      "ed"
    ],
    [
      " e",
      "y"
    ],
    [
      "li",
      "ed"
    ],
    [
      "ib",
      "ility"
    ],
    [
      " initi",
      "ative"
    ],
    [
      " res",
      "c"
    ],
    [
      " agric",
      "ultural"
    ],
    [
      " A",
      "nd"
    ],
    [
      " individ",
      "ual"
    ],
    [
      " el",
      "se"
    ],
    [
      " reas",
      "ons"
    ],
    [
      " hosp",
      "ital"
    ],
    [
      "2",
      "00"
    ],
    [
      " to",
      "ok"
    ],
    [
      " know",
      "n"
    ],
    [
      " em",
      "er"
    ],
    [
      "our",
      "s"
    ],
    [
      " main",
      "tain"
    ],
    [
      " F",
      "rench"
    ],
    [
      " des",
      "pite"
    ],
    [
      " m",
      "ult"
    ],
    [
      " Tur",
      "key"
    ],
    [
      " d",
      "iv"
    ],
    [
      " wor",
      "ks"
    ],
    [
      "idd",
      "le"
    ],
    [
      " for",
      "ced"
    ],
    [
      "ol",
      "l"
    ],
    [
      "ak",
      "es"
    ],
    [
      " co",
      "he"
    ],
    [
      " com",
      "pl"
    ],
    [
      "ne",
      "w"
    ],
    [
      " mar",
      "ry"
    ],
    [
      " Brit",
      "ish"
    ],
    [
      "y",
      "n"
    ],
    [
      "o",
      "f"
    ],
    [
      " re",
      "pe"
    ],
    [
      " p",
      "erm"
    ],
    [
      " ind",
      "epend"
    ],
    [
      " imm",
      "ig"
    ],
    [
      " M",
      "adam"
    ],
    [
      "iven",
      "ess"
    ],
    [
      " m",
      "is"
    ],
    [
      "S",
      "e"
    ],
    [
      "r",
      "imin"
    ],
    [
      " concern",
      "ing"
    ],
    [
      " enl",
      "arge"
    ],
    [
      " g",
      "iving"
    ],
    [
      " cou",
      "ple"
    ],
    [
      " fa",
      "ir"
    ],
    [
      " un",
      "c"
    ],
    [
      "ab",
      "led"
    ],
    [
      " f",
      "ear"
    ],
    [
      " m",
      "ist"
    ],
    [
      "re",
      "w"
    ],
    [
      " act",
      "ions"
    ],
    [
      " sugg",
      "est"
    ],
    [
      " t",
      "est"
    ],
    [
      "is",
      "hes"
    ],
    [
      " cl",
      "imate"
    ],
    [
      " matter",
      "s"
    ],
    [
      " 20",
      "1"
    ],
    [
      "ight",
      "s"
    ],
    [
      " D",
      "irect"
    ],
    [
      " m",
      "us"
    ],
    [
      "in",
      "ks"
    ],
    [
      " a",
      "ud"
    ],
    [
      "en",
      "g"
    ],
    [
      "qu",
      "e"
    ],
    [
      "d",
      "ing"
    ],
    [
      " det",
      "ail"
    ],
    [
      " K",
      "ing"
    ],
    [
      " r",
      "ad"
    ],
    [
      " tal",
      "king"
    ],
    [
      "ru",
      "ction"
    ],
    [
      " e",
      "ither"
    ],
    [
      " train",
      "ing"
    ],
    [
      " co",
      "ver"
    ],
    [
      " fell",
      "ow"
    ],
    [
      " P",
      "al"
    ],
    [
      "u",
      "k"
    ],
    [
      " esc",
      "ap"
    ],
    [
      "ive",
      "ly"
    ],
    [
      ")",
      "."
    ],
    [
      " S",
      "am"
    ],
    [
      " e",
      "arli"
    ],
    [
      " con",
      "nect"
    ],
    [
      " w",
      "atch"
    ],
    [
      " hand",
      "s"
    ],
    [
      " w",
      "ind"
    ],
    [
      " R",
      "o"
    ],
    [
      " sh",
      "own"
    ],
    [
      "ber",
      "al"
    ],
    [
      " prov",
      "ided"
    ],
    [
      "um",
      "p"
    ],
    [
      " conc",
      "lud"
    ],
    [
      " met",
      "hod"
    ],
    [
      ".",
      "."
    ],
    [
      " M",
      "an"
    ],
    [
      "ot",
      "e"
    ],
    [
      "c",
      "ent"
    ],
    [
      " ",
      "We"
    ],
    [
      " sol",
      "id"
    ],
    [
      " fore",
      "ign"
    ],
    [
      " Ge",
      "or"
    ],
    [
      " st",
      "ru"
    ],
    [
      " Rus",
      "sia"
    ],
    [
      "en",
      "ed"
    ],
    [
      " fr",
      "ont"
    ],
    [
      "L",
      "et"
    ],
    [
      " st",
      "age"
    ],
    [
      "y",
      "eah"
    ],
    [
      " guarant",
      "ee"
    ],
    [
      " em",
      "b"
    ],
    [
      " l",
      "ed"
    ],
    [
      "re",
      "g"
    ],
    [
      " w",
      "it"
    ],
    [
      " ag",
      "rees"
    ],
    [
      "rie",
      "f"
    ],
    [
      " mar",
      "riage"
    ],
    [
      " any",
      "thing"
    ],
    [
      " j",
      "oint"
    ],
    [
      " Am",
      "end"
    ],
    [
      "n",
      "ed"
    ],
    [
      " sa",
      "ve"
    ],
    [
      " priv",
      "ate"
    ],
    [
      "E",
      "urope"
    ],
    [
      " signific",
      "ant"
    ],
    [
      " p",
      "ort"
    ],
    [
      " part",
      "ies"
    ],
    [
      " des",
      "ign"
    ],
    [
      " n",
      "uclear"
    ],
    [
      " d",
      "am"
    ],
    [
      "i",
      "ples"
    ],
    [
      "v",
      "ent"
    ],
    [
      " E",
      "l"
    ],
    [
      "at",
      "is"
    ],
    [
      "ac",
      "y"
    ],
    [
      "a",
      "un"
    ],
    [
      " mon",
      "itor"
    ],
    [
      " ex",
      "cell"
    ],
    [
      " enlarge",
      "ment"
    ],
    [
      "s",
      "id"
    ],
    [
      " kill",
      "ing"
    ],
    [
      "k",
      "now"
    ],
    [
      " 1",
      "5"
    ],
    [
      " rev",
      "iew"
    ],
    [
      " E",
      "m"
    ],
    [
      "et",
      "h"
    ],
    [
      " comm",
      "unity"
    ],
    [
      " rec",
      "ord"
    ],
    [
      "le",
      "t"
    ],
    [
      " ex",
      "ch"
    ],
    [
      " p",
      "ain"
    ],
    [
      " sp",
      "ir"
    ],
    [
      " E",
      "d"
    ],
    [
      " per",
      "haps"
    ],
    [
      "ot",
      "s"
    ],
    [
      "g",
      "ic"
    ],
    [
      " offic",
      "ial"
    ],
    [
      "e",
      "v"
    ],
    [
      " s",
      "ens"
    ],
    [
      " fund",
      "ing"
    ],
    [
      "he",
      "l"
    ],
    [
      " W",
      "orld"
    ],
    [
      "ore",
      "d"
    ],
    [
      "or",
      "ies"
    ],
    [
      "il",
      "t"
    ],
    [
      " ar",
      "r"
    ],
    [
      " y",
      "eah"
    ],
    [
      " w",
      "on"
    ],
    [
      "ct",
      "ions"
    ],
    [
      " th",
      "us"
    ],
    [
      " s",
      "ix"
    ],
    [
      "t",
      "i"
    ],
    [
      "he",
      "ad"
    ],
    [
      " An",
      "g"
    ],
    [
      "er",
      "a"
    ],
    [
      "e",
      "g"
    ],
    [
      " off",
      "ers"
    ],
    [
      " ",
      "il"
    ],
    [
      " im",
      "pos"
    ],
    [
      " is",
      "land"
    ],
    [
      "an",
      "i"
    ],
    [
      " earli",
      "er"
    ],
    [
      " st",
      "reet"
    ],
    [
      " sc",
      "ient"
    ],
    [
      "L",
      "ater"
    ],
    [
      " an",
      "al"
    ],
    [
      " princ",
      "iples"
    ],
    [
      " f",
      "oot"
    ],
    [
      "atis",
      "f"
    ],
    [
      " follow",
      "s"
    ],
    [
      " P",
      "art"
    ],
    [
      " off",
      "ice"
    ],
    [
      " Y",
      "ork"
    ],
    [
      " answ",
      "er"
    ],
    [
      " C",
      "l"
    ],
    [
      "re",
      "nd"
    ],
    [
      " se",
      "arch"
    ],
    [
      " des",
      "c"
    ],
    [
      " consum",
      "ers"
    ],
    [
      " ref",
      "er"
    ],
    [
      " commit",
      "ment"
    ],
    [
      " il",
      "leg"
    ],
    [
      "anc",
      "ed"
    ],
    [
      "am",
      "b"
    ],
    [
      " rem",
      "ains"
    ],
    [
      " off",
      "er"
    ],
    [
      " pop",
      "ulation"
    ],
    [
      " wr",
      "ong"
    ],
    [
      " ro",
      "b"
    ],
    [
      "u",
      "h"
    ],
    [
      " B",
      "al"
    ],
    [
      "iz",
      "ation"
    ],
    [
      " learn",
      "s"
    ],
    [
      "o",
      "or"
    ],
    [
      " B",
      "el"
    ],
    [
      " sur",
      "pr"
    ],
    [
      "du",
      "ct"
    ],
    [
      " def",
      "in"
    ],
    [
      " v",
      "ol"
    ],
    [
      " j",
      "our"
    ],
    [
      " R",
      "ep"
    ],
    [
      ")",
      ","
    ],
    [
      " h",
      "op"
    ],
    [
      "i",
      "j"
    ],
    [
      "u",
      "ly"
    ],
    [
      " ob",
      "v"
    ],
    [
      " t",
      "em"
    ],
    [
      "l",
      "ine"
    ],
    [
      " opp",
      "os"
    ],
    [
      " Soc",
      "ial"
    ],
    [
      " nat",
      "ure"
    ],
    [
      " project",
      "s"
    ],
    [
      " respon",
      "se"
    ],
    [
      " d",
      "ut"
    ],
    [
      "enc",
      "ies"
    ],
    [
      " govern",
      "ments"
    ],
    [
      " s",
      "ense"
    ],
    [
      " dec",
      "ided"
    ],
    [
      "se",
      "t"
    ],
    [
      " po",
      "or"
    ],
    [
      "ch",
      "an"
    ],
    [
      "r",
      "ing"
    ],
    [
      " person",
      "al"
    ],
    [
      "re",
      "ct"
    ],
    [
      " recomm",
      "end"
    ],
    [
      "em",
      "oc"
    ],
    [
      " do",
      "g"
    ],
    [
      " destro",
      "y"
    ],
    [
      " Re",
      "g"
    ],
    [
      "ru",
      "pt"
    ],
    [
      "j",
      "oy"
    ],
    [
      " ex",
      "cept"
    ],
    [
      "em",
      "ploy"
    ],
    [
      " through",
      "out"
    ],
    [
      " m",
      "ob"
    ],
    [
      "en",
      "ing"
    ],
    [
      " gra",
      "nd"
    ],
    [
      " C",
      "ol"
    ],
    [
      "er",
      "ia"
    ],
    [
      " pract",
      "ice"
    ],
    [
      " ap",
      "artment"
    ],
    [
      " m",
      "ission"
    ],
    [
      "her",
      "n"
    ],
    [
      "ap",
      "an"
    ],
    [
      " ",
      "z"
    ],
    [
      " se",
      "par"
    ],
    [
      " ins",
      "ide"
    ],
    [
      " ",
      "ver"
    ],
    [
      "tern",
      "al"
    ],
    [
      " m",
      "ag"
    ],
    [
      " regard",
      "s"
    ],
    [
      "um",
      "b"
    ],
    [
      " regard",
      "ing"
    ],
    [
      "ang",
      "u"
    ],
    [
      " rec",
      "ently"
    ],
    [
      " d",
      "ream"
    ],
    [
      "og",
      "raph"
    ],
    [
      " rem",
      "ind"
    ],
    [
      " excell",
      "ent"
    ],
    [
      " pot",
      "ential"
    ],
    [
      " promot",
      "e"
    ],
    [
      "'",
      "ve"
    ],
    [
      "m",
      "ore"
    ],
    [
      " immedi",
      "ately"
    ],
    [
      " d",
      "ate"
    ],
    [
      " prev",
      "ious"
    ],
    [
      " docu",
      "ment"
    ],
    [
      "r",
      "is"
    ],
    [
      " viol",
      "ence"
    ],
    [
      " su",
      "sp"
    ],
    [
      " b",
      "ase"
    ],
    [
      "u",
      "ing"
    ],
    [
      " comprom",
      "ise"
    ],
    [
      " exper",
      "ience"
    ],
    [
      "ain",
      "ed"
    ],
    [
      "or",
      "row"
    ],
    [
      "an",
      "ia"
    ],
    [
      " he",
      "ard"
    ],
    [
      " bl",
      "ood"
    ],
    [
      " ag",
      "reed"
    ],
    [
      " av",
      "oid"
    ],
    [
      "res",
      "ident"
    ],
    [
      "un",
      "k"
    ],
    [
      " M",
      "c"
    ],
    [
      " Ch",
      "ar"
    ],
    [
      " achie",
      "ved"
    ],
    [
      "ra",
      "el"
    ],
    [
      " ass",
      "oc"
    ],
    [
      " Ar",
      "ticle"
    ],
    [
      " En",
      "g"
    ],
    [
      " M",
      "ay"
    ],
    [
      " assist",
      "ance"
    ],
    [
      " benef",
      "it"
    ],
    [
      "ab",
      "y"
    ],
    [
      " a",
      "ut"
    ],
    [
      "it",
      "es"
    ],
    [
      "S",
      "t"
    ],
    [
      " man",
      "ages"
    ],
    [
      " c",
      "le"
    ],
    [
      " me",
      "chan"
    ],
    [
      "ri",
      "ght"
    ],
    [
      "s",
      "y"
    ],
    [
      " bo",
      "ok"
    ],
    [
      "D",
      "E"
    ],
    [
      " re",
      "con"
    ],
    [
      " to",
      "ur"
    ],
    [
      " s",
      "al"
    ],
    [
      " u",
      "m"
    ],
    [
      "ad",
      "es"
    ],
    [
      " arri",
      "ve"
    ],
    [
      " ur",
      "g"
    ],
    [
      " cont",
      "r"
    ],
    [
      "u",
      "el"
    ],
    [
      " v",
      "o"
    ],
    [
      " O",
      "r"
    ],
    [
      " P",
      "h"
    ],
    [
      " success",
      "ful"
    ],
    [
      " init",
      "ial"
    ],
    [
      "c",
      "hed"
    ],
    [
      "M",
      "y"
    ],
    [
      " ar",
      "gu"
    ],
    [
      " ind",
      "ic"
    ],
    [
      " C",
      "ent"
    ],
    [
      "v",
      "ant"
    ],
    [
      " pri",
      "ority"
    ],
    [
      " lead",
      "s"
    ],
    [
      "ous",
      "ly"
    ],
    [
      " C",
      "o"
    ],
    [
      " Germ",
      "an"
    ],
    [
      " gr",
      "ant"
    ],
    [
      " pro",
      "ceed"
    ],
    [
      " happen",
      "ed"
    ],
    [
      " e",
      "arly"
    ],
    [
      "ener",
      "al"
    ],
    [
      " l",
      "ate"
    ],
    [
      " c",
      "ust"
    ],
    [
      " want",
      "ed"
    ],
    [
      "ter",
      "m"
    ],
    [
      " p",
      "en"
    ],
    [
      "au",
      "ght"
    ],
    [
      "N",
      "ow"
    ],
    [
      " J",
      "apan"
    ],
    [
      " pow",
      "ers"
    ],
    [
      " ch",
      "ance"
    ],
    [
      " un",
      "able"
    ],
    [
      " b",
      "rief"
    ],
    [
      " appe",
      "ar"
    ],
    [
      " Ch",
      "ina"
    ],
    [
      "over",
      "ty"
    ],
    [
      " th",
      "row"
    ],
    [
      " D",
      "av"
    ],
    [
      " ra",
      "p"
    ],
    [
      " c",
      "ause"
    ],
    [
      "P",
      "resident"
    ],
    [
      " happ",
      "y"
    ],
    [
      "ra",
      "in"
    ],
    [
      "es",
      "e"
    ],
    [
      " not",
      "e"
    ],
    [
      "ol",
      "ute"
    ],
    [
      " B",
      "e"
    ],
    [
      " cont",
      "act"
    ],
    [
      " P",
      "ar"
    ],
    [
      " Con",
      "vention"
    ],
    [
      " m",
      "ass"
    ],
    [
      " h",
      "ig"
    ],
    [
      " G",
      "ree"
    ],
    [
      " h",
      "ost"
    ],
    [
      " d",
      "en"
    ],
    [
      " contin",
      "ues"
    ],
    [
      " S",
      "ec"
    ],
    [
      " ex",
      "ec"
    ],
    [
      " congrat",
      "ulate"
    ],
    [
      " d",
      "ro"
    ],
    [
      "re",
      "ad"
    ],
    [
      "r",
      "ated"
    ],
    [
      "Al",
      "though"
    ],
    [
      " f",
      "ishing"
    ],
    [
      "S",
      "h"
    ],
    [
      "b",
      "o"
    ],
    [
      " complete",
      "ly"
    ],
    [
      " aspect",
      "s"
    ],
    [
      "op",
      "h"
    ],
    [
      " val",
      "ue"
    ],
    [
      " W",
      "ar"
    ],
    [
      " infl",
      "u"
    ],
    [
      "h",
      "old"
    ],
    [
      " cap",
      "ital"
    ],
    [
      " g",
      "ame"
    ],
    [
      " require",
      "d"
    ],
    [
      "im",
      "um"
    ],
    [
      " new",
      "s"
    ],
    [
      " it",
      "em"
    ],
    [
      " u",
      "nd"
    ],
    [
      " techn",
      "ical"
    ],
    [
      "re",
      "ly"
    ],
    [
      " charact",
      "er"
    ],
    [
      " pre",
      "t"
    ],
    [
      " market",
      "s"
    ],
    [
      "'",
      "m"
    ],
    [
      " c",
      "ame"
    ],
    [
      "The",
      "n"
    ],
    [
      " en",
      "joy"
    ],
    [
      "ct",
      "ors"
    ],
    [
      " crimin",
      "al"
    ],
    [
      "ar",
      "ily"
    ],
    [
      " val",
      "ues"
    ],
    [
      " colleag",
      "ues"
    ],
    [
      " abs",
      "olute"
    ],
    [
      " know",
      "s"
    ],
    [
      " 1",
      "8"
    ],
    [
      " demand",
      "s"
    ],
    [
      " h",
      "uge"
    ],
    [
      "e",
      "qu"
    ],
    [
      " legisl",
      "ative"
    ],
    [
      "ic",
      "i"
    ],
    [
      " app",
      "ly"
    ],
    [
      " l",
      "angu"
    ],
    [
      " lab",
      "our"
    ],
    [
      "i",
      "ers"
    ],
    [
      " tr",
      "uth"
    ],
    [
      "a",
      "el"
    ],
    [
      "B",
      "e"
    ],
    [
      " de",
      "ep"
    ],
    [
      " col",
      "l"
    ],
    [
      " b",
      "ed"
    ],
    [
      " M",
      "art"
    ],
    [
      " t",
      "rou"
    ],
    [
      "le",
      "ep"
    ],
    [
      " rest",
      "rict"
    ],
    [
      " l",
      "os"
    ],
    [
      "un",
      "ities"
    ],
    [
      " belie",
      "ves"
    ],
    [
      " sustain",
      "able"
    ],
    [
      " solid",
      "arity"
    ],
    [
      " d",
      "ies"
    ],
    [
      " Is",
      "rael"
    ],
    [
      " pro",
      "b"
    ],
    [
      "Se",
      "cond"
    ],
    [
      "le",
      "x"
    ],
    [
      " h",
      "it"
    ],
    [
      "ill",
      "s"
    ],
    [
      " he",
      "ar"
    ],
    [
      "aren",
      "cy"
    ],
    [
      "on",
      "es"
    ],
    [
      " b",
      "ank"
    ],
    [
      " invest",
      "ment"
    ],
    [
      "y",
      "ear"
    ],
    [
      " exist",
      "ing"
    ],
    [
      " consum",
      "er"
    ],
    [
      " P",
      "e"
    ],
    [
      " w",
      "ays"
    ],
    [
      "ition",
      "al"
    ],
    [
      "ens",
      "ive"
    ],
    [
      " us",
      "es"
    ],
    [
      " p",
      "overty"
    ],
    [
      " M",
      "ed"
    ],
    [
      " we",
      "ap"
    ],
    [
      " commun",
      "ication"
    ],
    [
      "il",
      "es"
    ],
    [
      "T",
      "O"
    ],
    [
      " we",
      "alth"
    ],
    [
      " hist",
      "ory"
    ],
    [
      " Fr",
      "ance"
    ],
    [
      "-",
      "-"
    ],
    [
      " cons",
      "ult"
    ],
    [
      "O",
      "ffice"
    ],
    [
      "There",
      "fore"
    ],
    [
      "ed",
      "eral"
    ],
    [
      " rel",
      "ation"
    ],
    [
      " c",
      "and"
    ],
    [
      "O",
      "ur"
    ],
    [
      " s",
      "ell"
    ],
    [
      " fam",
      "il"
    ],
    [
      "ac",
      "her"
    ],
    [
      " ",
      "$"
    ],
    [
      "er",
      "y"
    ],
    [
      " t",
      "en"
    ],
    [
      " read",
      "ing"
    ],
    [
      " col",
      "lect"
    ],
    [
      "he",
      "ries"
    ],
    [
      " mur",
      "d"
    ],
    [
      " be",
      "aut"
    ],
    [
      " ar",
      "m"
    ],
    [
      " car",
      "ried"
    ],
    [
      " J",
      "an"
    ],
    [
      " in",
      "j"
    ],
    [
      "im",
      "ately"
    ],
    [
      "w",
      "here"
    ],
    [
      " E",
      "uro"
    ],
    [
      "u",
      "ine"
    ],
    [
      " organ",
      "is"
    ],
    [
      " tra",
      "ff"
    ],
    [
      " R",
      "aj"
    ],
    [
      "op",
      "s"
    ],
    [
      " sub",
      "sid"
    ],
    [
      " require",
      "ments"
    ],
    [
      " d",
      "om"
    ],
    [
      " just",
      "ice"
    ],
    [
      " integr",
      "ation"
    ],
    [
      " 1",
      "2"
    ],
    [
      "ra",
      "w"
    ],
    [
      " vict",
      "ims"
    ],
    [
      " real",
      "ity"
    ],
    [
      "a",
      "res"
    ],
    [
      " contrib",
      "ution"
    ],
    [
      " cont",
      "ract"
    ],
    [
      " wit",
      "ness"
    ],
    [
      "ir",
      "th"
    ],
    [
      "ie",
      "f"
    ],
    [
      " consequ",
      "ences"
    ],
    [
      " lead",
      "ing"
    ],
    [
      " st",
      "ation"
    ],
    [
      " respon",
      "d"
    ],
    [
      "v",
      "ision"
    ],
    [
      " to",
      "r"
    ],
    [
      " ass",
      "um"
    ],
    [
      " stru",
      "gg"
    ],
    [
      " F",
      "in"
    ],
    [
      "ap",
      "pe"
    ],
    [
      " transp",
      "arency"
    ],
    [
      "il",
      "ar"
    ],
    [
      " re",
      "pl"
    ],
    [
      " f",
      "ra"
    ],
    [
      " sc",
      "he"
    ],
    [
      " Fr",
      "ank"
    ],
    [
      " re",
      "ven"
    ],
    [
      "ant",
      "ic"
    ],
    [
      "an",
      "ish"
    ],
    [
      " ag",
      "enda"
    ],
    [
      " c",
      "ultural"
    ],
    [
      " ra",
      "ised"
    ],
    [
      " mod",
      "el"
    ],
    [
      " U",
      "N"
    ],
    [
      " terror",
      "ism"
    ],
    [
      " elect",
      "ions"
    ],
    [
      "if",
      "f"
    ],
    [
      " bas",
      "ic"
    ],
    [
      " proced",
      "ures"
    ],
    [
      " incre",
      "ased"
    ],
    [
      " bal",
      "ance"
    ],
    [
      " R",
      "ights"
    ],
    [
      "t",
      "t"
    ],
    [
      " ser",
      "ies"
    ],
    [
      " s",
      "atisf"
    ],
    [
      " ple",
      "ased"
    ],
    [
      "ess",
      "ion"
    ],
    [
      " know",
      "ledge"
    ],
    [
      " attack",
      "s"
    ],
    [
      " illeg",
      "al"
    ],
    [
      " un",
      "employ"
    ],
    [
      " begin",
      "ning"
    ],
    [
      "ing",
      "ly"
    ],
    [
      " state",
      "ment"
    ],
    [
      " D",
      "emoc"
    ],
    [
      " bo",
      "ard"
    ],
    [
      "ra",
      "nd"
    ],
    [
      " s",
      "ound"
    ],
    [
      " b",
      "attle"
    ],
    [
      " spir",
      "it"
    ],
    [
      " cla",
      "im"
    ],
    [
      " a",
      "ge"
    ],
    [
      "ri",
      "al"
    ],
    [
      " girl",
      "s"
    ],
    [
      " cre",
      "ation"
    ],
    [
      " reveal",
      "ed"
    ],
    [
      " P",
      "ort"
    ],
    [
      " Direct",
      "ive"
    ],
    [
      " doub",
      "t"
    ],
    [
      " regul",
      "ations"
    ],
    [
      " m",
      "ember"
    ],
    [
      " challen",
      "ges"
    ],
    [
      "if",
      "t"
    ],
    [
      " press",
      "ure"
    ],
    [
      "ren",
      "ces"
    ],
    [
      " J",
      "im"
    ],
    [
      " m",
      "ut"
    ],
    [
      "d",
      "den"
    ],
    [
      " present",
      "ed"
    ],
    [
      " em",
      "ission"
    ],
    [
      "oc",
      "ks"
    ],
    [
      "et",
      "ary"
    ],
    [
      " mess",
      "age"
    ],
    [
      " att",
      "ract"
    ],
    [
      " ref",
      "lect"
    ],
    [
      " inn",
      "ov"
    ],
    [
      " crit",
      "eria"
    ],
    [
      "il",
      "ly"
    ],
    [
      " prov",
      "isions"
    ],
    [
      " lead",
      "ers"
    ],
    [
      " mod",
      "ern"
    ],
    [
      " set",
      "t"
    ],
    [
      " than",
      "ks"
    ],
    [
      "ut",
      "ed"
    ],
    [
      "al",
      "d"
    ],
    [
      " 200",
      "0"
    ],
    [
      " st",
      "ress"
    ],
    [
      " P",
      "l"
    ],
    [
      " l",
      "ink"
    ],
    [
      " ",
      "|"
    ],
    [
      " redu",
      "ce"
    ],
    [
      " invol",
      "ve"
    ],
    [
      " t",
      "ask"
    ],
    [
      " foc",
      "us"
    ],
    [
      "conom",
      "ic"
    ],
    [
      " d",
      "ire"
    ],
    [
      " conflic",
      "t"
    ],
    [
      "si",
      "an"
    ],
    [
      " cru",
      "cial"
    ],
    [
      " A",
      "ust"
    ],
    [
      " exch",
      "ange"
    ],
    [
      " P",
      "aul"
    ],
    [
      "ro",
      "ll"
    ],
    [
      "a",
      "f"
    ],
    [
      " u",
      "lt"
    ],
    [
      " ob",
      "tain"
    ],
    [
      " su",
      "dden"
    ],
    [
      " mus",
      "ic"
    ],
    [
      " ra",
      "il"
    ],
    [
      " equ",
      "al"
    ],
    [
      " M",
      "or"
    ],
    [
      " think",
      "ing"
    ],
    [
      " st",
      "aff"
    ],
    [
      "ur",
      "s"
    ],
    [
      " pre",
      "cise"
    ],
    [
      " farm",
      "ers"
    ],
    [
      " M",
      "al"
    ],
    [
      " rece",
      "ived"
    ],
    [
      " ter",
      "rit"
    ],
    [
      " con",
      "duct"
    ],
    [
      " p",
      "ie"
    ],
    [
      " applic",
      "ation"
    ],
    [
      " high",
      "light"
    ],
    [
      "b",
      "all"
    ],
    [
      "ro",
      "om"
    ],
    [
      " our",
      "selves"
    ],
    [
      " girl",
      "friend"
    ],
    [
      "w",
      "ell"
    ],
    [
      "o",
      "ke"
    ],
    [
      "am",
      "a"
    ],
    [
      " E",
      "ast"
    ],
    [
      "ic",
      "ide"
    ],
    [
      " ab",
      "and"
    ],
    [
      " s",
      "ort"
    ],
    [
      " m",
      "er"
    ],
    [
      " prep",
      "ared"
    ],
    [
      "olog",
      "ical"
    ],
    [
      "iz",
      "es"
    ],
    [
      " treat",
      "ment"
    ],
    [
      "v",
      "is"
    ],
    [
      "ol",
      "ly"
    ],
    [
      " y",
      "es"
    ],
    [
      " we",
      "ak"
    ],
    [
      "li",
      "ance"
    ],
    [
      " cour",
      "t"
    ],
    [
      "ag",
      "er"
    ],
    [
      " h",
      "om"
    ],
    [
      " ev",
      "idence"
    ],
    [
      " A",
      "b"
    ],
    [
      " Americ",
      "a"
    ],
    [
      " set",
      "s"
    ],
    [
      " c",
      "od"
    ],
    [
      "ich",
      "ael"
    ],
    [
      "e",
      "en"
    ],
    [
      " prob",
      "ably"
    ],
    [
      " o",
      "pt"
    ],
    [
      " st",
      "ability"
    ],
    [
      " ob",
      "lig"
    ],
    [
      " crit",
      "ic"
    ],
    [
      " W",
      "ill"
    ],
    [
      "c",
      "l"
    ],
    [
      " b",
      "aby"
    ],
    [
      " de",
      "l"
    ],
    [
      " L",
      "i"
    ],
    [
      "as",
      "on"
    ],
    [
      "Second",
      "ly"
    ],
    [
      " w",
      "ent"
    ],
    [
      "at",
      "ure"
    ],
    [
      " fle",
      "x"
    ],
    [
      " cor",
      "rect"
    ],
    [
      " re",
      "d"
    ],
    [
      " li",
      "beral"
    ],
    [
      " g",
      "as"
    ],
    [
      " becom",
      "ing"
    ],
    [
      " tell",
      "ing"
    ],
    [
      " m",
      "ater"
    ],
    [
      "m",
      "ar"
    ],
    [
      "id",
      "el"
    ],
    [
      " 1",
      "1"
    ],
    [
      "ver",
      "t"
    ],
    [
      " let",
      "ter"
    ],
    [
      " to",
      "tal"
    ],
    [
      " anal",
      "ys"
    ],
    [
      "in",
      "i"
    ],
    [
      " b",
      "irth"
    ],
    [
      " ord",
      "ers"
    ],
    [
      " instru",
      "ments"
    ],
    [
      "ous",
      "and"
    ],
    [
      " pr",
      "ice"
    ],
    [
      "er",
      "ve"
    ],
    [
      " w",
      "ed"
    ],
    [
      " J",
      "ust"
    ],
    [
      "re",
      "c"
    ],
    [
      " circ",
      "um"
    ],
    [
      " includ",
      "ed"
    ],
    [
      " my",
      "ster"
    ],
    [
      "ide",
      "red"
    ],
    [
      " offic",
      "er"
    ],
    [
      " level",
      "s"
    ],
    [
      " c",
      "ast"
    ],
    [
      "m",
      "p"
    ],
    [
      " re",
      "ached"
    ],
    [
      " cohe",
      "sion"
    ],
    [
      " effect",
      "s"
    ],
    [
      " play",
      "ing"
    ],
    [
      " p",
      "un"
    ],
    [
      "D",
      "es"
    ],
    [
      " w",
      "orth"
    ],
    [
      " b",
      "omb"
    ],
    [
      " d",
      "ied"
    ],
    [
      " break",
      "s"
    ],
    [
      " cons",
      "idered"
    ],
    [
      " allow",
      "ed"
    ],
    [
      " rel",
      "ating"
    ],
    [
      " o",
      "il"
    ],
    [
      " hot",
      "el"
    ],
    [
      "i",
      "en"
    ],
    [
      " stud",
      "y"
    ],
    [
      " cre",
      "w"
    ],
    [
      " ac",
      "qu"
    ],
    [
      " dire",
      "ction"
    ],
    [
      "it",
      "ude"
    ],
    [
      "it",
      "er"
    ],
    [
      " ex",
      "act"
    ],
    [
      "b",
      "an"
    ],
    [
      " harm",
      "on"
    ],
    [
      " expl",
      "ains"
    ],
    [
      " Rep",
      "ublic"
    ],
    [
      " f",
      "irm"
    ],
    [
      " S",
      "outh"
    ],
    [
      " p",
      "ub"
    ],
    [
      " creat",
      "ed"
    ],
    [
      " ",
      "ir"
    ],
    [
      " comm",
      "itted"
    ],
    [
      " ",
      "\""
    ],
    [
      " vot",
      "ing"
    ],
    [
      " Amend",
      "ment"
    ],
    [
      " r",
      "at"
    ],
    [
      "the",
      "less"
    ],
    [
      "ic",
      "ks"
    ],
    [
      " t",
      "abled"
    ],
    [
      " br",
      "ings"
    ],
    [
      " M",
      "ad"
    ],
    [
      "l",
      "ong"
    ],
    [
      " technolog",
      "y"
    ],
    [
      " move",
      "ment"
    ],
    [
      " I",
      "ra"
    ],
    [
      " d",
      "in"
    ],
    [
      " ca",
      "using"
    ],
    [
      " Ang",
      "el"
    ],
    [
      " rem",
      "ember"
    ],
    [
      " encoura",
      "ge"
    ],
    [
      " cons",
      "ist"
    ],
    [
      "ol",
      "id"
    ],
    [
      "e",
      "ks"
    ],
    [
      " ref",
      "uge"
    ],
    [
      " nat",
      "ural"
    ],
    [
      " lo",
      "oks"
    ],
    [
      "w",
      "ise"
    ],
    [
      " suc",
      "ceed"
    ],
    [
      "g",
      "ar"
    ],
    [
      "H",
      "er"
    ],
    [
      " Afric",
      "a"
    ],
    [
      "sel",
      "s"
    ],
    [
      "ve",
      "red"
    ],
    [
      "r",
      "ay"
    ],
    [
      " su",
      "spect"
    ],
    [
      " sim",
      "ilar"
    ],
    [
      " initi",
      "atives"
    ],
    [
      "ug",
      "s"
    ],
    [
      "it",
      "arian"
    ],
    [
      " instru",
      "ment"
    ],
    [
      " re",
      "lig"
    ],
    [
      " opport",
      "unities"
    ],
    [
      " g",
      "one"
    ],
    [
      " app",
      "arent"
    ],
    [
      "y",
      "le"
    ],
    [
      " ca",
      "uses"
    ],
    [
      "if",
      "ul"
    ],
    [
      " step",
      "s"
    ],
    [
      " n",
      "orm"
    ],
    [
      " D",
      "on"
    ],
    [
      " Dav",
      "id"
    ],
    [
      " gen",
      "uine"
    ],
    [
      " access",
      "ion"
    ],
    [
      "oura",
      "ble"
    ],
    [
      " b",
      "and"
    ],
    [
      " Part",
      "y"
    ],
    [
      " under",
      "t"
    ],
    [
      " name",
      "ly"
    ],
    [
      " m",
      "ent"
    ],
    [
      " cand",
      "id"
    ],
    [
      " expl",
      "ain"
    ],
    [
      " to",
      "m"
    ],
    [
      " pack",
      "age"
    ],
    [
      " see",
      "k"
    ],
    [
      "S",
      "ome"
    ],
    [
      " establ",
      "ished"
    ],
    [
      "a",
      "ign"
    ],
    [
      " organis",
      "ations"
    ],
    [
      "re",
      "m"
    ],
    [
      "le",
      "b"
    ],
    [
      "\\",
      "*"
    ],
    [
      " w",
      "arn"
    ],
    [
      " dis",
      "appe"
    ],
    [
      " reg",
      "ret"
    ],
    [
      "ur",
      "ch"
    ],
    [
      " lead",
      "er"
    ],
    [
      "itt",
      "en"
    ],
    [
      " he",
      "av"
    ],
    [
      " 3",
      "0"
    ],
    [
      "d",
      "om"
    ],
    [
      " dis",
      "e"
    ],
    [
      " pri",
      "orities"
    ],
    [
      " Ira",
      "q"
    ],
    [
      "c",
      "er"
    ],
    [
      " occ",
      "as"
    ],
    [
      "port",
      "s"
    ],
    [
      " tr",
      "ust"
    ],
    [
      " th",
      "ousand"
    ],
    [
      " monitor",
      "ing"
    ],
    [
      " J",
      "ul"
    ],
    [
      " rece",
      "ive"
    ],
    [
      " develop",
      "ed"
    ],
    [
      " f",
      "re"
    ],
    [
      "f",
      "ect"
    ],
    [
      " â",
      ""
    ],
    [
      " prov",
      "ides"
    ],
    [
      "M",
      "ore"
    ],
    [
      " do",
      "ctor"
    ],
    [
      " Q",
      "u"
    ],
    [
      " G",
      "u"
    ],
    [
      "ow",
      "s"
    ],
    [
      "end",
      "er"
    ],
    [
      "li",
      "ke"
    ],
    [
      " vo",
      "ice"
    ],
    [
      " b",
      "od"
    ],
    [
      "il",
      "ater"
    ],
    [
      " fore",
      "st"
    ],
    [
      " disc",
      "rimin"
    ],
    [
      " fl",
      "oor"
    ],
    [
      " cust",
      "om"
    ],
    [
      " origin",
      "al"
    ],
    [
      " conc",
      "lusion"
    ],
    [
      " addition",
      "al"
    ],
    [
      " camp",
      "aign"
    ],
    [
      "v",
      "iew"
    ],
    [
      " run",
      "ning"
    ],
    [
      " we",
      "eks"
    ],
    [
      " exper",
      "i"
    ],
    [
      " an",
      "ti"
    ],
    [
      "d",
      "y"
    ],
    [
      "r",
      "ative"
    ],
    [
      " ",
      "!"
    ],
    [
      "c",
      "ks"
    ],
    [
      "sib",
      "ilities"
    ],
    [
      "h",
      "ic"
    ],
    [
      " al",
      "tern"
    ],
    [
      " some",
      "one"
    ],
    [
      "ann",
      "y"
    ],
    [
      "all",
      "ed"
    ],
    [
      " s",
      "end"
    ],
    [
      " ",
      "ign"
    ],
    [
      "b",
      "ody"
    ],
    [
      " S",
      "he"
    ],
    [
      "k",
      "en"
    ],
    [
      "b",
      "ack"
    ],
    [
      " n",
      "or"
    ],
    [
      " aband",
      "on"
    ],
    [
      " h",
      "y"
    ],
    [
      "it",
      "a"
    ],
    [
      " ph",
      "ot"
    ],
    [
      " b",
      "illion"
    ],
    [
      " spe",
      "ech"
    ],
    [
      "i",
      "ated"
    ],
    [
      " as",
      "king"
    ],
    [
      " Pal",
      "est"
    ],
    [
      "g",
      "n"
    ],
    [
      "e",
      "ff"
    ],
    [
      "se",
      "c"
    ],
    [
      " see",
      "ing"
    ],
    [
      " pur",
      "pose"
    ],
    [
      " convin",
      "ced"
    ],
    [
      " S",
      "l"
    ],
    [
      "j",
      "ust"
    ],
    [
      "for",
      "ce"
    ],
    [
      "F",
      "urther"
    ],
    [
      "u",
      "ct"
    ],
    [
      " su",
      "icide"
    ],
    [
      " ex",
      "ternal"
    ],
    [
      " desc",
      "rib"
    ],
    [
      "oc",
      "ked"
    ],
    [
      " escap",
      "es"
    ],
    [
      " v",
      "ital"
    ],
    [
      " circum",
      "st"
    ],
    [
      " call",
      "ing"
    ],
    [
      " adv",
      "ant"
    ],
    [
      " l",
      "aun"
    ],
    [
      "n",
      "ie"
    ],
    [
      " I",
      "I"
    ],
    [
      " p",
      "ick"
    ],
    [
      " suff",
      "icient"
    ],
    [
      " pr",
      "im"
    ],
    [
      " set",
      "ting"
    ],
    [
      " budget",
      "ary"
    ],
    [
      " I",
      "t"
    ],
    [
      " ext",
      "ent"
    ],
    [
      " exp",
      "ressed"
    ],
    [
      " b",
      "it"
    ],
    [
      " w",
      "ound"
    ],
    [
      " dri",
      "ve"
    ],
    [
      " dis",
      "p"
    ],
    [
      "ic",
      "ations"
    ],
    [
      "b",
      "our"
    ],
    [
      " s",
      "low"
    ],
    [
      "re",
      "land"
    ],
    [
      " creat",
      "ing"
    ],
    [
      " s",
      "ends"
    ],
    [
      " re",
      "new"
    ],
    [
      "im",
      "ent"
    ],
    [
      " was",
      "te"
    ],
    [
      " Con",
      "stit"
    ],
    [
      " open",
      "ing"
    ],
    [
      " ve",
      "hic"
    ],
    [
      " shoot",
      "s"
    ],
    [
      " ph",
      "one"
    ],
    [
      " cla",
      "ims"
    ],
    [
      "g",
      "est"
    ],
    [
      " 2",
      "5"
    ],
    [
      " cent",
      "ral"
    ],
    [
      "u",
      "f"
    ],
    [
      " wa",
      "iting"
    ],
    [
      " M",
      "ary"
    ],
    [
      " m",
      "ount"
    ],
    [
      "ac",
      "ity"
    ],
    [
      " support",
      "ed"
    ],
    [
      "et",
      "s"
    ],
    [
      " r",
      "ate"
    ],
    [
      " r",
      "ural"
    ],
    [
      " ",
      "?"
    ],
    [
      " re",
      "ady"
    ],
    [
      " r",
      "ich"
    ],
    [
      " pos",
      "sibility"
    ],
    [
      " S",
      "an"
    ],
    [
      " ev",
      "al"
    ],
    [
      "ou",
      "l"
    ],
    [
      "iv",
      "al"
    ],
    [
      " w",
      "at"
    ],
    [
      " med",
      "ium"
    ],
    [
      " challen",
      "ge"
    ],
    [
      " bod",
      "ies"
    ],
    [
      "e",
      "al"
    ],
    [
      " op",
      "ens"
    ],
    [
      " good",
      "s"
    ],
    [
      " benef",
      "its"
    ],
    [
      "ar",
      "ation"
    ],
    [
      " p",
      "aid"
    ],
    [
      " beh",
      "av"
    ],
    [
      " comb",
      "at"
    ],
    [
      " c",
      "ulture"
    ],
    [
      "ici",
      "ency"
    ],
    [
      " w",
      "ishes"
    ],
    [
      " colle",
      "ge"
    ],
    [
      "a",
      "ction"
    ],
    [
      "in",
      "o"
    ],
    [
      " h",
      "um"
    ],
    [
      "ve",
      "re"
    ],
    [
      " auth",
      "or"
    ],
    [
      " mot",
      "ion"
    ],
    [
      " absolute",
      "ly"
    ],
    [
      "is",
      "c"
    ],
    [
      " partners",
      "hip"
    ],
    [
      "B",
      "y"
    ],
    [
      " dut",
      "y"
    ],
    [
      " s",
      "n"
    ],
    [
      " for",
      "ms"
    ],
    [
      " pl",
      "ot"
    ],
    [
      " implement",
      "ed"
    ],
    [
      " h",
      "ours"
    ],
    [
      " C",
      "al"
    ],
    [
      " anim",
      "als"
    ],
    [
      "ir",
      "t"
    ],
    [
      " dr",
      "ink"
    ],
    [
      " ty",
      "pe"
    ],
    [
      " pr",
      "ices"
    ],
    [
      " m",
      "em"
    ],
    [
      "ist",
      "an"
    ],
    [
      "ag",
      "raph"
    ],
    [
      "C",
      "on"
    ],
    [
      " M",
      "a"
    ],
    [
      " for",
      "get"
    ],
    [
      " Germ",
      "any"
    ],
    [
      "ic",
      "y"
    ],
    [
      "rat",
      "s"
    ],
    [
      " s",
      "leep"
    ],
    [
      " mater",
      "ial"
    ],
    [
      " conf",
      "irm"
    ],
    [
      "velop",
      "ment"
    ],
    [
      " S",
      "u"
    ],
    [
      "re",
      "hen"
    ],
    [
      " ca",
      "used"
    ],
    [
      "h",
      "ouse"
    ],
    [
      " arrest",
      "ed"
    ],
    [
      " emission",
      "s"
    ],
    [
      " drug",
      "s"
    ],
    [
      " ce",
      "leb"
    ],
    [
      " J",
      "une"
    ],
    [
      " B",
      "en"
    ],
    [
      " p",
      "ict"
    ],
    [
      " be",
      "y"
    ],
    [
      "ra",
      "ft"
    ],
    [
      " re",
      "b"
    ],
    [
      " se",
      "a"
    ],
    [
      " bey",
      "ond"
    ],
    [
      " Sw",
      "ed"
    ],
    [
      " tom",
      "orrow"
    ],
    [
      " redu",
      "ction"
    ],
    [
      " med",
      "ia"
    ],
    [
      " increasing",
      "ly"
    ],
    [
      " circumst",
      "ances"
    ],
    [
      " bord",
      "ers"
    ],
    [
      " stud",
      "ents"
    ],
    [
      " part",
      "ner"
    ],
    [
      " I",
      "reland"
    ],
    [
      "ove",
      "red"
    ],
    [
      "'",
      "."
    ],
    [
      " w",
      "all"
    ],
    [
      " conf",
      "idence"
    ],
    [
      " com",
      "ments"
    ],
    [
      " beaut",
      "iful"
    ],
    [
      "yl",
      "um"
    ],
    [
      " c",
      "ounter"
    ],
    [
      "g",
      "round"
    ],
    [
      " G",
      "od"
    ],
    [
      " c",
      "aught"
    ],
    [
      " aff",
      "air"
    ],
    [
      " wed",
      "ding"
    ],
    [
      " un",
      "s"
    ],
    [
      " l",
      "oss"
    ],
    [
      " immig",
      "ration"
    ],
    [
      " an",
      "g"
    ],
    [
      "ic",
      "a"
    ],
    [
      "err",
      "an"
    ],
    [
      "ac",
      "ed"
    ],
    [
      " pub",
      "l"
    ],
    [
      " connect",
      "ion"
    ],
    [
      "en",
      "a"
    ],
    [
      " 1",
      "3"
    ],
    [
      "ce",
      "mber"
    ],
    [
      " gr",
      "ad"
    ],
    [
      " ens",
      "uring"
    ],
    [
      "ri",
      "f"
    ],
    [
      " even",
      "ing"
    ],
    [
      " ex",
      "er"
    ],
    [
      " L",
      "u"
    ],
    [
      " ",
      "000"
    ],
    [
      "Un",
      "fortunately"
    ],
    [
      " compet",
      "it"
    ],
    [
      " .",
      ".."
    ],
    [
      " sa",
      "w"
    ],
    [
      " t",
      "able"
    ],
    [
      "z",
      "e"
    ],
    [
      " p",
      "ull"
    ],
    [
      "olog",
      "y"
    ],
    [
      " indust",
      "rial"
    ],
    [
      " ar",
      "my"
    ],
    [
      " accept",
      "ed"
    ],
    [
      " ",
      "rom"
    ],
    [
      "it",
      "ation"
    ],
    [
      " eff",
      "icient"
    ],
    [
      " any",
      "one"
    ],
    [
      "ilater",
      "al"
    ],
    [
      " A",
      "s"
    ],
    [
      "in",
      "t"
    ],
    [
      "c",
      "he"
    ],
    [
      " l",
      "if"
    ],
    [
      " find",
      "ing"
    ],
    [
      " comple",
      "x"
    ],
    [
      " A",
      "lex"
    ],
    [
      " en",
      "able"
    ],
    [
      "in",
      "ated"
    ],
    [
      " Port",
      "ug"
    ],
    [
      " Con",
      "ference"
    ],
    [
      " int",
      "ended"
    ],
    [
      " se",
      "ctors"
    ],
    [
      " n",
      "ar"
    ],
    [
      " fun",
      "ction"
    ],
    [
      "h",
      "an"
    ],
    [
      " serious",
      "ly"
    ],
    [
      " int",
      "el"
    ],
    [
      " t",
      "ack"
    ],
    [
      " discuss",
      "ed"
    ],
    [
      "com",
      "ing"
    ],
    [
      "es",
      "tern"
    ],
    [
      " view",
      "s"
    ],
    [
      " direct",
      "ly"
    ],
    [
      " danger",
      "ous"
    ],
    [
      "it",
      "erran"
    ],
    [
      "Des",
      "pite"
    ],
    [
      "iterran",
      "ean"
    ],
    [
      "our",
      "ce"
    ],
    [
      " pres",
      "idency"
    ],
    [
      " business",
      "es"
    ],
    [
      " g",
      "ave"
    ],
    [
      " S",
      "ch"
    ],
    [
      " un",
      "f"
    ],
    [
      " sp",
      "ace"
    ],
    [
      " be",
      "ar"
    ],
    [
      " E",
      "x"
    ],
    [
      "it",
      "ch"
    ],
    [
      "ill",
      "ed"
    ],
    [
      " de",
      "fe"
    ],
    [
      " fis",
      "heries"
    ],
    [
      " cont",
      "ent"
    ],
    [
      " bord",
      "er"
    ],
    [
      " agric",
      "ulture"
    ],
    [
      "m",
      "ing"
    ],
    [
      " per",
      "fect"
    ],
    [
      " stat",
      "us"
    ],
    [
      " sp",
      "end"
    ],
    [
      " B",
      "ob"
    ],
    [
      " enter",
      "pr"
    ],
    [
      " N",
      "ations"
    ],
    [
      " w",
      "id"
    ],
    [
      " spe",
      "ed"
    ],
    [
      " M",
      "ichael"
    ],
    [
      " 1",
      "7"
    ],
    [
      "enc",
      "ed"
    ],
    [
      " con",
      "cept"
    ],
    [
      " fight",
      "ing"
    ],
    [
      " bu",
      "y"
    ],
    [
      " accord",
      "ing"
    ],
    [
      " S",
      "er"
    ],
    [
      "ivers",
      "ity"
    ],
    [
      " inc",
      "ident"
    ],
    [
      " affect",
      "ed"
    ],
    [
      " assess",
      "ment"
    ],
    [
      " effective",
      "ly"
    ],
    [
      " J",
      "oe"
    ],
    [
      " reform",
      "s"
    ],
    [
      "n",
      "al"
    ],
    [
      "ic",
      "ated"
    ],
    [
      " m",
      "ach"
    ],
    [
      " c",
      "op"
    ],
    [
      "ur",
      "t"
    ],
    [
      " c",
      "al"
    ],
    [
      "Ã",
      "©"
    ],
    [
      "ict",
      "ion"
    ],
    [
      " won",
      "der"
    ],
    [
      " independ",
      "ent"
    ],
    [
      " cho",
      "ice"
    ],
    [
      " app",
      "lied"
    ],
    [
      " anim",
      "al"
    ],
    [
      "il",
      "ing"
    ],
    [
      " sold",
      "iers"
    ],
    [
      " pract",
      "ical"
    ],
    [
      " b",
      "urn"
    ],
    [
      " Cent",
      "ral"
    ],
    [
      " De",
      "cember"
    ],
    [
      " perform",
      "ance"
    ],
    [
      " plan",
      "ning"
    ],
    [
      " s",
      "il"
    ],
    [
      " represent",
      "atives"
    ],
    [
      "in",
      "ary"
    ],
    [
      "k",
      "y"
    ],
    [
      "z",
      "z"
    ],
    [
      " expl",
      "o"
    ],
    [
      " B",
      "udget"
    ],
    [
      "o",
      "x"
    ],
    [
      "ag",
      "ing"
    ],
    [
      " high",
      "ly"
    ],
    [
      " G",
      "eneral"
    ],
    [
      "ar",
      "i"
    ],
    [
      " 1",
      "4"
    ],
    [
      " sex",
      "ual"
    ],
    [
      " resc",
      "ue"
    ],
    [
      " unemploy",
      "ment"
    ],
    [
      " cont",
      "ain"
    ],
    [
      "O",
      "f"
    ],
    [
      " N",
      "orth"
    ],
    [
      "w",
      "or"
    ],
    [
      "iz",
      "ing"
    ],
    [
      " cond",
      "em"
    ],
    [
      "ure",
      "au"
    ],
    [
      "sy",
      "ch"
    ],
    [
      " pol",
      "l"
    ],
    [
      " h",
      "un"
    ],
    [
      "ond",
      "on"
    ],
    [
      " te",
      "acher"
    ],
    [
      " m",
      "iddle"
    ],
    [
      " ident",
      "ity"
    ],
    [
      " ey",
      "es"
    ],
    [
      "E",
      "C"
    ],
    [
      "idel",
      "ines"
    ],
    [
      "'",
      "ll"
    ],
    [
      " supp",
      "ly"
    ],
    [
      " qu",
      "al"
    ],
    [
      " cent",
      "ury"
    ],
    [
      "i",
      "am"
    ],
    [
      " ste",
      "al"
    ],
    [
      " prov",
      "iding"
    ],
    [
      "On",
      "ce"
    ],
    [
      " somet",
      "imes"
    ],
    [
      " S",
      "um"
    ],
    [
      " as",
      "ylum"
    ],
    [
      "pect",
      "ive"
    ],
    [
      " dep",
      "end"
    ],
    [
      "ri",
      "an"
    ],
    [
      "Europe",
      "an"
    ],
    [
      " me",
      "ant"
    ],
    [
      " Geor",
      "ge"
    ],
    [
      "S",
      "ince"
    ],
    [
      " com",
      "ment"
    ],
    [
      " colleag",
      "ue"
    ],
    [
      " B",
      "ank"
    ],
    [
      " will",
      "ing"
    ],
    [
      " oper",
      "ation"
    ],
    [
      " r",
      "out"
    ],
    [
      " ann",
      "ounc"
    ],
    [
      "ok",
      "ing"
    ],
    [
      " ra",
      "ise"
    ],
    [
      " pl",
      "ays"
    ],
    [
      " deal",
      "ing"
    ],
    [
      " for",
      "t"
    ],
    [
      " Wh",
      "ite"
    ],
    [
      " feel",
      "s"
    ],
    [
      " discussion",
      "s"
    ],
    [
      " comm",
      "er"
    ],
    [
      " s",
      "an"
    ],
    [
      " rele",
      "vant"
    ],
    [
      " hist",
      "or"
    ],
    [
      " J",
      "erry"
    ],
    [
      " subst",
      "ant"
    ],
    [
      " l",
      "ar"
    ],
    [
      " on",
      "es"
    ],
    [
      " Th",
      "is"
    ],
    [
      " st",
      "ar"
    ],
    [
      "in",
      "ing"
    ],
    [
      " s",
      "itting"
    ],
    [
      "pp",
      "er"
    ],
    [
      "'",
      "d"
    ],
    [
      " boy",
      "s"
    ],
    [
      "u",
      "ary"
    ],
    [
      " cap",
      "acity"
    ],
    [
      " th",
      "inks"
    ],
    [
      " grow",
      "ing"
    ],
    [
      " f",
      "em"
    ],
    [
      " vis",
      "its"
    ],
    [
      " follow",
      "ed"
    ],
    [
      " start",
      "ed"
    ],
    [
      "arli",
      "e"
    ],
    [
      " e",
      "ld"
    ],
    [
      " L",
      "ondon"
    ],
    [
      " Just",
      "ice"
    ],
    [
      " rad",
      "io"
    ],
    [
      " difficult",
      "ies"
    ],
    [
      "ur",
      "ance"
    ],
    [
      " pers",
      "u"
    ],
    [
      " ful",
      "f"
    ],
    [
      " E",
      "C"
    ],
    [
      " kid",
      "s"
    ],
    [
      "b",
      "ed"
    ],
    [
      " pl",
      "ant"
    ],
    [
      " miss",
      "ing"
    ],
    [
      " hig",
      "her"
    ],
    [
      " ext",
      "ra"
    ],
    [
      " adopt",
      "ion"
    ],
    [
      " J",
      "o"
    ],
    [
      "d",
      "am"
    ],
    [
      "c",
      "le"
    ],
    [
      " sim",
      "pl"
    ],
    [
      " influ",
      "ence"
    ],
    [
      " ag",
      "encies"
    ],
    [
      " sudden",
      "ly"
    ],
    [
      " Sp",
      "anish"
    ],
    [
      "ect",
      "ive"
    ],
    [
      " st",
      "ab"
    ],
    [
      "g",
      "en"
    ],
    [
      " un",
      "ac"
    ],
    [
      " s",
      "qu"
    ],
    [
      " min",
      "ister"
    ],
    [
      " play",
      "ed"
    ],
    [
      " b",
      "oss"
    ],
    [
      " B",
      "ro"
    ],
    [
      " k",
      "e"
    ],
    [
      " St",
      "e"
    ],
    [
      "anc",
      "ing"
    ],
    [
      " b",
      "ul"
    ],
    [
      "E",
      "P"
    ],
    [
      " own",
      "er"
    ],
    [
      " De",
      "velopment"
    ],
    [
      "und",
      "red"
    ],
    [
      "k",
      "es"
    ],
    [
      "J",
      "ust"
    ],
    [
      "r",
      "ant"
    ],
    [
      " ann",
      "ual"
    ],
    [
      "it",
      "able"
    ],
    [
      " t",
      "ried"
    ],
    [
      " pen",
      "al"
    ],
    [
      " happ",
      "ens"
    ],
    [
      "H",
      "ow"
    ],
    [
      " act",
      "ive"
    ],
    [
      "re",
      "l"
    ],
    [
      " S",
      "ar"
    ],
    [
      " conc",
      "ent"
    ],
    [
      " C",
      "he"
    ],
    [
      " 1",
      "6"
    ],
    [
      " B",
      "er"
    ],
    [
      " s",
      "ong"
    ],
    [
      " pre",
      "gn"
    ],
    [
      " be",
      "long"
    ],
    [
      "Be",
      "fore"
    ],
    [
      " b",
      "all"
    ],
    [
      " appro",
      "ved"
    ],
    [
      " coord",
      "ination"
    ],
    [
      "enn",
      "y"
    ],
    [
      " struct",
      "ural"
    ],
    [
      " Rus",
      "sian"
    ],
    [
      " p",
      "sych"
    ],
    [
      " on",
      "to"
    ],
    [
      " stud",
      "ent"
    ],
    [
      " reven",
      "ge"
    ],
    [
      " realiz",
      "e"
    ],
    [
      " ar",
      "ms"
    ],
    [
      "0",
      "s"
    ],
    [
      " supp",
      "osed"
    ],
    [
      " k",
      "iss"
    ],
    [
      " eff",
      "iciency"
    ],
    [
      " G",
      "reen"
    ],
    [
      "el",
      "t"
    ],
    [
      " accident",
      "ally"
    ],
    [
      "ra",
      "p"
    ],
    [
      " famil",
      "ies"
    ],
    [
      "r",
      "id"
    ],
    [
      "ak",
      "en"
    ],
    [
      " re",
      "un"
    ],
    [
      " occ",
      "ur"
    ],
    [
      " de",
      "leg"
    ],
    [
      "c",
      "her"
    ],
    [
      "av",
      "ing"
    ],
    [
      "r",
      "ast"
    ],
    [
      " m",
      "and"
    ],
    [
      "ar",
      "ies"
    ],
    [
      " re",
      "ference"
    ],
    [
      " meas",
      "ure"
    ],
    [
      " const",
      "ruct"
    ],
    [
      " fail",
      "ed"
    ],
    [
      " arr",
      "ange"
    ],
    [
      "Further",
      "more"
    ],
    [
      " cl",
      "im"
    ],
    [
      "ree",
      "ment"
    ],
    [
      "it",
      "ious"
    ],
    [
      " requ",
      "ires"
    ],
    [
      " kill",
      "er"
    ],
    [
      " man",
      "ner"
    ],
    [
      "I",
      "nd"
    ],
    [
      " put",
      "s"
    ],
    [
      " comm",
      "and"
    ],
    [
      "l",
      "or"
    ],
    [
      " prov",
      "ision"
    ],
    [
      " sum",
      "mit"
    ],
    [
      "â",
      ""
    ],
    [
      " scient",
      "ific"
    ],
    [
      "ines",
      "e"
    ],
    [
      " turn",
      "ed"
    ],
    [
      "i",
      "ate"
    ],
    [
      " wa",
      "it"
    ],
    [
      " Ir",
      "ish"
    ],
    [
      "b",
      "ur"
    ],
    [
      " weap",
      "ons"
    ],
    [
      " consider",
      "able"
    ],
    [
      " analys",
      "is"
    ],
    [
      " L",
      "a"
    ],
    [
      " e",
      "th"
    ],
    [
      " c",
      "atch"
    ],
    [
      " instit",
      "utional"
    ],
    [
      " 5",
      "0"
    ],
    [
      " g",
      "old"
    ],
    [
      "oh",
      "ol"
    ],
    [
      "lus",
      "ions"
    ],
    [
      "A",
      "r"
    ],
    [
      " gu",
      "idelines"
    ],
    [
      " chang",
      "ed"
    ],
    [
      " b",
      "i"
    ],
    [
      " ",
      "%"
    ],
    [
      " t",
      "ro"
    ],
    [
      " clos",
      "er"
    ],
    [
      "c",
      "ohol"
    ],
    [
      " tri",
      "p"
    ],
    [
      " old",
      "er"
    ],
    [
      " exact",
      "ly"
    ],
    [
      " sc",
      "ope"
    ],
    [
      " reg",
      "ime"
    ],
    [
      "et",
      "her"
    ],
    [
      " cl",
      "ub"
    ],
    [
      " speak",
      "ing"
    ],
    [
      " dis",
      "app"
    ],
    [
      " unac",
      "cept"
    ],
    [
      " sol",
      "utions"
    ],
    [
      " r",
      "ise"
    ],
    [
      " part",
      "s"
    ],
    [
      " help",
      "s"
    ],
    [
      " dri",
      "ving"
    ],
    [
      " c",
      "am"
    ],
    [
      "p",
      "ir"
    ],
    [
      " C",
      "y"
    ],
    [
      " Ital",
      "ian"
    ],
    [
      "I",
      "s"
    ],
    [
      " wh",
      "ite"
    ],
    [
      " fig",
      "ure"
    ],
    [
      " attack",
      "ed"
    ],
    [
      " B",
      "o"
    ],
    [
      "rast",
      "ruct"
    ],
    [
      "k",
      "i"
    ],
    [
      " over",
      "all"
    ],
    [
      "A",
      "m"
    ],
    [
      " langu",
      "age"
    ],
    [
      " Palest",
      "in"
    ],
    [
      "First",
      "ly"
    ],
    [
      "ol",
      "f"
    ],
    [
      "od",
      "ay"
    ],
    [
      " introdu",
      "ced"
    ],
    [
      " R",
      "es"
    ],
    [
      "v",
      "a"
    ],
    [
      "it",
      "ure"
    ],
    [
      "im",
      "ension"
    ],
    [
      " par",
      "agraph"
    ],
    [
      "N",
      "o"
    ],
    [
      " inter",
      "p"
    ],
    [
      " eas",
      "y"
    ],
    [
      " c",
      "ell"
    ],
    [
      " C",
      "ity"
    ],
    [
      " f",
      "ish"
    ],
    [
      " al",
      "ive"
    ],
    [
      "ers",
      "on"
    ],
    [
      " rap",
      "id"
    ],
    [
      " ra",
      "ce"
    ],
    [
      " per",
      "cent"
    ],
    [
      "or",
      "por"
    ],
    [
      " l",
      "ies"
    ]
  ]
}